{
  "version": "1.0",
  "truncation": null,
  "padding": null,
  "added_tokens": [
    {
      "id": 0,
      "content": "[UNK]",
      "single_word": false,
      "lstrip": false,
      "rstrip": false,
      "normalized": false,
      "special": true
    },
    {
      "id": 1,
      "content": "[PAD]",
      "single_word": false,
      "lstrip": false,
      "rstrip": false,
      "normalized": false,
      "special": true
    },
    {
      "id": 2,
      "content": "[BOS]",
      "single_word": false,
      "lstrip": false,
      "rstrip": false,
      "normalized": false,
      "special": true
    },
    {
      "id": 3,
      "content": "[EOS]",
      "single_word": false,
      "lstrip": false,
      "rstrip": false,
      "normalized": false,
      "special": true
    }
  ],
  "normalizer": null,
  "pre_tokenizer": {
    "type": "Whitespace"
  },
  "post_processor": {
    "type": "TemplateProcessing",
    "single": [
      {
        "SpecialToken": {
          "id": "[BOS]",
          "type_id": 0
        }
      },
      {
        "Sequence": {
          "id": "A",
          "type_id": 0
        }
      },
      {
        "SpecialToken": {
          "id": "[EOS]",
          "type_id": 0
        }
      }
    ],
    "pair": [
      {
        "Sequence": {
          "id": "A",
          "type_id": 0
        }
      },
      {
        "Sequence": {
          "id": "B",
          "type_id": 1
        }
      }
    ],
    "special_tokens": {
      "[BOS]": {
        "id": "[BOS]",
        "ids": [
          2
        ],
        "tokens": [
          "[BOS]"
        ]
      },
      "[EOS]": {
        "id": "[EOS]",
        "ids": [
          3
        ],
        "tokens": [
          "[EOS]"
        ]
      }
    }
  },
  "decoder": null,
  "model": {
    "type": "BPE",
    "dropout": null,
    "unk_token": "[UNK]",
    "continuing_subword_prefix": null,
    "end_of_word_suffix": null,
    "fuse_unk": false,
    "vocab": {
      "[UNK]": 0,
      "[PAD]": 1,
      "[BOS]": 2,
      "[EOS]": 3,
      "!": 4,
      "\"": 5,
      "#": 6,
      "$": 7,
      "%": 8,
      "&": 9,
      "'": 10,
      "(": 11,
      ")": 12,
      "*": 13,
      "+": 14,
      ",": 15,
      "-": 16,
      ".": 17,
      "/": 18,
      "0": 19,
      "1": 20,
      "2": 21,
      "3": 22,
      "4": 23,
      "5": 24,
      "6": 25,
      "7": 26,
      "8": 27,
      "9": 28,
      ":": 29,
      ";": 30,
      "=": 31,
      "?": 32,
      "@": 33,
      "A": 34,
      "B": 35,
      "C": 36,
      "D": 37,
      "E": 38,
      "F": 39,
      "G": 40,
      "H": 41,
      "I": 42,
      "J": 43,
      "K": 44,
      "L": 45,
      "M": 46,
      "N": 47,
      "O": 48,
      "P": 49,
      "Q": 50,
      "R": 51,
      "S": 52,
      "T": 53,
      "U": 54,
      "V": 55,
      "W": 56,
      "X": 57,
      "Y": 58,
      "Z": 59,
      "[": 60,
      "]": 61,
      "^": 62,
      "_": 63,
      "a": 64,
      "b": 65,
      "c": 66,
      "d": 67,
      "e": 68,
      "f": 69,
      "g": 70,
      "h": 71,
      "i": 72,
      "j": 73,
      "k": 74,
      "l": 75,
      "m": 76,
      "n": 77,
      "o": 78,
      "p": 79,
      "q": 80,
      "r": 81,
      "s": 82,
      "t": 83,
      "u": 84,
      "v": 85,
      "w": 86,
      "x": 87,
      "y": 88,
      "z": 89,
      "": 90,
      "": 91,
      "¡": 92,
      "£": 93,
      "²": 94,
      "º": 95,
      "Á": 96,
      "Å": 97,
      "Ç": 98,
      "É": 99,
      "à": 100,
      "á": 101,
      "â": 102,
      "ã": 103,
      "ä": 104,
      "ç": 105,
      "è": 106,
      "é": 107,
      "ê": 108,
      "ë": 109,
      "í": 110,
      "ï": 111,
      "ñ": 112,
      "ò": 113,
      "ó": 114,
      "ô": 115,
      "ö": 116,
      "ø": 117,
      "ù": 118,
      "û": 119,
      "ü": 120,
      "ā": 121,
      "ć": 122,
      "Č": 123,
      "ē": 124,
      "ě": 125,
      "ī": 126,
      "ū": 127,
      "ย": 128,
      "ร": 129,
      "อ": 130,
      "่": 131,
      "–": 132,
      "—": 133,
      "‘": 134,
      "’": 135,
      "“": 136,
      "”": 137,
      "…": 138,
      "€": 139,
      "♪": 140,
      "♫": 141,
      "你": 142,
      "葱": 143,
      "送": 144,
      "th": 145,
      "in": 146,
      "the": 147,
      "an": 148,
      "re": 149,
      "at": 150,
      "ou": 151,
      "on": 152,
      "er": 153,
      "is": 154,
      "to": 155,
      "en": 156,
      "al": 157,
      "ing": 158,
      "it": 159,
      "or": 160,
      "es": 161,
      "of": 162,
      "and": 163,
      "as": 164,
      "ar": 165,
      "ed": 166,
      "le": 167,
      "that": 168,
      "se": 169,
      "st": 170,
      "om": 171,
      "ic": 172,
      "he": 173,
      "we": 174,
      "you": 175,
      "ve": 176,
      "ow": 177,
      "be": 178,
      "ly": 179,
      "nd": 180,
      "ac": 181,
      "wh": 182,
      "ion": 183,
      "ha": 184,
      "ll": 185,
      "ent": 186,
      "me": 187,
      "ld": 188,
      "ut": 189,
      "ver": 190,
      "ot": 191,
      "li": 192,
      "ay": 193,
      "And": 194,
      "id": 195,
      "ch": 196,
      "this": 197,
      "ab": 198,
      "for": 199,
      "ro": 200,
      "ke": 201,
      "out": 202,
      "are": 203,
      "wi": 204,
      "ge": 205,
      "gh": 206,
      "lo": 207,
      "pe": 208,
      "all": 209,
      "was": 210,
      "do": 211,
      "ne": 212,
      "go": 213,
      "so": 214,
      "ir": 215,
      "mo": 216,
      "ad": 217,
      "ome": 218,
      "ri": 219,
      "ally": 220,
      "ce": 221,
      "us": 222,
      "have": 223,
      "im": 224,
      "one": 225,
      "op": 226,
      "with": 227,
      "fe": 228,
      "they": 229,
      "ter": 230,
      "can": 231,
      "ct": 232,
      "--": 233,
      "if": 234,
      "our": 235,
      "thing": 236,
      "The": 237,
      "de": 238,
      "wor": 239,
      "ation": 240,
      "am": 241,
      "te": 242,
      "con": 243,
      "ght": 244,
      "ur": 245,
      "what": 246,
      "So": 247,
      "tr": 248,
      "very": 249,
      "ther": 250,
      "now": 251,
      "ould": 252,
      "ant": 253,
      "ca": 254,
      "about": 255,
      "ul": 256,
      "Th": 257,
      "un": 258,
      "fr": 259,
      "com": 260,
      "not": 261,
      "act": 262,
      "per": 263,
      "ex": 264,
      "pro": 265,
      "ust": 266,
      "here": 267,
      "art": 268,
      "use": 269,
      "pl": 270,
      "od": 271,
      "some": 272,
      "il": 273,
      "my": 274,
      "there": 275,
      "ol": 276,
      "We": 277,
      "ma": 278,
      "ind": 279,
      "like": 280,
      "ople": 281,
      "It": 282,
      "up": 283,
      "um": 284,
      "ess": 285,
      "ok": 286,
      "ate": 287,
      "sh": 288,
      "ure": 289,
      "ig": 290,
      "people": 291,
      "ain": 292,
      "ity": 293,
      "from": 294,
      "but": 295,
      "est": 296,
      "sa": 297,
      "ive": 298,
      "qu": 299,
      "way": 300,
      "po": 301,
      "ink": 302,
      "ye": 303,
      "know": 304,
      "no": 305,
      "ag": 306,
      "just": 307,
      "cause": 308,
      "get": 309,
      "them": 310,
      "ci": 311,
      "any": 312,
      "gr": 313,
      "res": 314,
      "see": 315,
      "ti": 316,
      "ide": 317,
      "But": 318,
      "these": 319,
      "think": 320,
      "ill": 321,
      "who": 322,
      "ist": 323,
      "ers": 324,
      "by": 325,
      "ap": 326,
      "going": 327,
      "ich": 328,
      "ound": 329,
      "ars": 330,
      "co": 331,
      "nt": 332,
      "other": 333,
      "more": 334,
      "when": 335,
      "had": 336,
      "end": 337,
      "ine": 338,
      "ment": 339,
      "work": 340,
      "because": 341,
      "your": 342,
      "ort": 343,
      "were": 344,
      "sp": 345,
      "ack": 346,
      "et": 347,
      "would": 348,
      "fo": 349,
      "00": 350,
      "red": 351,
      "which": 352,
      "how": 353,
      "look": 354,
      "Wh": 355,
      "su": 356,
      "want": 357,
      "their": 358,
      "really": 359,
      "ually": 360,
      ".\"": 361,
      "ta": 362,
      "ous": 363,
      "ble": 364,
      "ies": 365,
      "ard": 366,
      "ans": 367,
      "ast": 368,
      "tor": 369,
      "time": 370,
      "ev": 371,
      "own": 372,
      "ple": 373,
      "You": 374,
      "em": 375,
      "where": 376,
      "has": 377,
      "world": 378,
      "age": 379,
      "reat": 380,
      "ach": 381,
      "day": 382,
      "This": 383,
      "ace": 384,
      "then": 385,
      "br": 386,
      "don": 387,
      "pp": 388,
      "ough": 389,
      "iz": 390,
      "able": 391,
      "pr": 392,
      "into": 393,
      "iv": 394,
      "el": 395,
      "every": 396,
      "ong": 397,
      "und": 398,
      "actually": 399,
      "say": 400,
      "will": 401,
      "could": 402,
      "ions": 403,
      "ight": 404,
      "cent": 405,
      "ence": 406,
      "things": 407,
      "years": 408,
      "king": 409,
      "itt": 410,
      "did": 411,
      "ph": 412,
      "Now": 413,
      "ild": 414,
      "bo": 415,
      "wo": 416,
      "ose": 417,
      "In": 418,
      "put": 419,
      "They": 420,
      "right": 421,
      "ical": 422,
      "ud": 423,
      "than": 424,
      "sel": 425,
      "happ": 426,
      "dif": 427,
      "been": 428,
      "ite": 429,
      "log": 430,
      "ie": 431,
      "make": 432,
      "part": 433,
      "ice": 434,
      "new": 435,
      "chan": 436,
      "bu": 437,
      "try": 438,
      "over": 439,
      "dis": 440,
      "need": 441,
      "most": 442,
      "ree": 443,
      "fere": 444,
      "ass": 445,
      "said": 446,
      "start": 447,
      "back": 448,
      "his": 449,
      "form": 450,
      "come": 451,
      "got": 452,
      "irst": 453,
      "tal": 454,
      "something": 455,
      "sy": 456,
      "mu": 457,
      "He": 458,
      "two": 459,
      "cou": 460,
      "str": 461,
      "call": 462,
      "ign": 463,
      "port": 464,
      "kind": 465,
      "much": 466,
      "bl": 467,
      "ens": 468,
      "int": 469,
      "those": 470,
      "differe": 471,
      "ia": 472,
      "first": 473,
      "ater": 474,
      "ittle": 475,
      "cl": 476,
      "ves": 477,
      "little": 478,
      "des": 479,
      "gu": 480,
      "lot": 481,
      "cr": 482,
      "spe": 483,
      "ber": 484,
      "also": 485,
      "she": 486,
      "bod": 487,
      "af": 488,
      "That": 489,
      "bet": 490,
      "ving": 491,
      "ho": 492,
      "pos": 493,
      "life": 494,
      "ish": 495,
      "pre": 496,
      "ty": 497,
      "rest": 498,
      "ep": 499,
      "thr": 500,
      "only": 501,
      "ck": 502,
      "ult": 503,
      "gen": 504,
      "si": 505,
      "ated": 506,
      "What": 507,
      "pt": 508,
      "body": 509,
      "cho": 510,
      "even": 511,
      "cre": 512,
      "hum": 513,
      "ful": 514,
      "ob": 515,
      "many": 516,
      "under": 517,
      "tell": 518,
      "ade": 519,
      "her": 520,
      "take": 521,
      "its": 522,
      "lear": 523,
      "down": 524,
      "real": 525,
      "good": 526,
      "self": 527,
      "ect": 528,
      "different": 529,
      "There": 530,
      "does": 531,
      "through": 532,
      "man": 533,
      "ict": 534,
      "pres": 535,
      "around": 536,
      "ick": 537,
      "uct": 538,
      "cont": 539,
      "stand": 540,
      "tory": 541,
      "ra": 542,
      "ue": 543,
      "ms": 544,
      "comm": 545,
      "ank": 546,
      "ase": 547,
      "read": 548,
      "being": 549,
      "off": 550,
      "ought": 551,
      "cess": 552,
      "urn": 553,
      "show": 554,
      "hi": 555,
      "let": 556,
      "ents": 557,
      "als": 558,
      "ord": 559,
      "vi": 560,
      "ting": 561,
      "son": 562,
      "ations": 563,
      "side": 564,
      "mar": 565,
      "stem": 566,
      "fore": 567,
      "Well": 568,
      "happen": 569,
      "same": 570,
      "proble": 571,
      "ance": 572,
      "wr": 573,
      "tech": 574,
      "lect": 575,
      "ip": 576,
      "ire": 577,
      "sur": 578,
      "ces": 579,
      "If": 580,
      "doing": 581,
      "year": 582,
      "fl": 583,
      "ning": 584,
      "big": 585,
      "human": 586,
      "great": 587,
      "ject": 588,
      "ys": 589,
      "may": 590,
      "system": 591,
      "three": 592,
      "ak": 593,
      "find": 594,
      "car": 595,
      "ically": 596,
      "well": 597,
      "talk": 598,
      "sci": 599,
      "ef": 600,
      "comp": 601,
      "fact": 602,
      "cond": 603,
      "build": 604,
      "ary": 605,
      "bit": 606,
      "sto": 607,
      "fa": 608,
      "percent": 609,
      "xt": 610,
      "called": 611,
      "logy": 612,
      "cer": 613,
      "long": 614,
      "inter": 615,
      "cour": 616,
      "inte": 617,
      "came": 618,
      "ask": 619,
      "med": 620,
      "ways": 621,
      "ower": 622,
      "less": 623,
      "ved": 624,
      "stud": 625,
      "min": 626,
      "turn": 627,
      "soci": 628,
      "quest": 629,
      "ser": 630,
      "child": 631,
      "sol": 632,
      "ries": 633,
      "la": 634,
      "made": 635,
      "ics": 636,
      "sim": 637,
      "uc": 638,
      "mer": 639,
      "inv": 640,
      "ever": 641,
      "again": 642,
      "light": 643,
      "col": 644,
      "mon": 645,
      "illion": 646,
      "exper": 647,
      "ps": 648,
      "fin": 649,
      "Ch": 650,
      "ating": 651,
      "play": 652,
      "bi": 653,
      "ren": 654,
      "hel": 655,
      "old": 656,
      "tim": 657,
      "import": 658,
      "fect": 659,
      "vers": 660,
      "ual": 661,
      "sm": 662,
      "ave": 663,
      "should": 664,
      "ities": 665,
      "change": 666,
      "bas": 667,
      "why": 668,
      "Be": 669,
      "after": 670,
      "techno": 671,
      "wom": 672,
      "ition": 673,
      "pa": 674,
      "person": 675,
      "used": 676,
      "design": 677,
      "ates": 678,
      "ven": 679,
      "mean": 680,
      "creat": 681,
      "000": 682,
      "ial": 683,
      "dec": 684,
      "plan": 685,
      "important": 686,
      "interest": 687,
      "ger": 688,
      "last": 689,
      "thought": 690,
      "today": 691,
      "arch": 692,
      "brain": 693,
      "idea": 694,
      "didn": 695,
      "feel": 696,
      "point": 697,
      "Thank": 698,
      "cal": 699,
      "gan": 700,
      "?\"": 701,
      "sing": 702,
      "went": 703,
      "ond": 704,
      "prod": 705,
      "started": 706,
      "him": 707,
      "place": 708,
      "ry": 709,
      "high": 710,
      "exam": 711,
      "land": 712,
      "ago": 713,
      "hand": 714,
      "ize": 715,
      "beli": 716,
      "water": 717,
      "ese": 718,
      "course": 719,
      "understand": 720,
      "ise": 721,
      "might": 722,
      "give": 723,
      "pu": 724,
      "power": 725,
      "before": 726,
      "mem": 727,
      "better": 728,
      "times": 729,
      "alth": 730,
      "ss": 731,
      "sha": 732,
      "ame": 733,
      "ility": 734,
      "ile": 735,
      "bab": 736,
      "ists": 737,
      "never": 738,
      "problem": 739,
      "ular": 740,
      "another": 741,
      "story": 742,
      "chool": 743,
      "inst": 744,
      "ica": 745,
      "ons": 746,
      "les": 747,
      "eng": 748,
      "vir": 749,
      "att": 750,
      "found": 751,
      "atter": 752,
      "cur": 753,
      "20": 754,
      "few": 755,
      "gether": 756,
      "ily": 757,
      "net": 758,
      "10": 759,
      "kid": 760,
      "still": 761,
      "kes": 762,
      "sort": 763,
      "together": 764,
      "dr": 765,
      "care": 766,
      "ff": 767,
      "fam": 768,
      "help": 769,
      "19": 770,
      "vis": 771,
      "num": 772,
      "next": 773,
      "pol": 774,
      "imag": 775,
      "school": 776,
      "velo": 777,
      "ution": 778,
      "ward": 779,
      "ors": 780,
      "nat": 781,
      "commun": 782,
      "ense": 783,
      "comple": 784,
      "az": 785,
      "gy": 786,
      "tri": 787,
      "ween": 788,
      "count": 789,
      "possi": 790,
      "each": 791,
      "too": 792,
      "coun": 793,
      "cell": 794,
      "ts": 795,
      "When": 796,
      "word": 797,
      "book": 798,
      "che": 799,
      "atch": 800,
      "learn": 801,
      "ited": 802,
      "between": 803,
      "rel": 804,
      "technology": 805,
      "dat": 806,
      "question": 807,
      "clo": 808,
      "ness": 809,
      "comes": 810,
      ",\"": 811,
      "develo": 812,
      "Amer": 813,
      "cy": 814,
      "ience": 815,
      "four": 816,
      "looking": 817,
      "love": 818,
      "ures": 819,
      "cor": 820,
      "trans": 821,
      "gl": 822,
      "ian": 823,
      "small": 824,
      "ear": 825,
      "room": 826,
      "live": 827,
      "Because": 828,
      "par": 829,
      "example": 830,
      "ug": 831,
      "iness": 832,
      "done": 833,
      "develop": 834,
      "head": 835,
      "ins": 836,
      "move": 837,
      "comput": 838,
      "di": 839,
      "grow": 840,
      "partic": 841,
      "lar": 842,
      "doesn": 843,
      "bal": 844,
      "How": 845,
      "St": 846,
      "pri": 847,
      "av": 848,
      "mom": 849,
      "data": 850,
      "ized": 851,
      "using": 852,
      "aph": 853,
      "mind": 854,
      "second": 855,
      "fri": 856,
      "ks": 857,
      "far": 858,
      "women": 859,
      "chang": 860,
      "reas": 861,
      "vie": 862,
      "line": 863,
      "gener": 864,
      "wanted": 865,
      "uni": 866,
      "formation": 867,
      "ft": 868,
      "hard": 869,
      "ship": 870,
      "eve": 871,
      "working": 872,
      "lim": 873,
      "away": 874,
      "bot": 875,
      "conom": 876,
      "whole": 877,
      "million": 878,
      "ner": 879,
      "selves": 880,
      "giv": 881,
      "children": 882,
      "set": 883,
      "trying": 884,
      "No": 885,
      "ific": 886,
      "ings": 887,
      "press": 888,
      "cept": 889,
      "ath": 890,
      "friend": 891,
      "face": 892,
      "led": 893,
      "bus": 894,
      "econom": 895,
      "always": 896,
      "ote": 897,
      "bre": 898,
      "run": 899,
      "sk": 900,
      "mal": 901,
      "believe": 902,
      "ational": 903,
      "ener": 904,
      "aut": 905,
      "ments": 906,
      "oft": 907,
      "ious": 908,
      "oney": 909,
      "ters": 910,
      "mis": 911,
      "ird": 912,
      "Afr": 913,
      "ls": 914,
      "home": 915,
      "ural": 916,
      "health": 917,
      "anim": 918,
      "aw": 919,
      "Un": 920,
      "..": 921,
      "top": 922,
      "50": 923,
      "exp": 924,
      "pict": 925,
      "fic": 926,
      "gre": 927,
      "sup": 928,
      "country": 929,
      "ute": 930,
      "ross": 931,
      "coming": 932,
      "open": 933,
      "organ": 934,
      "add": 935,
      "mus": 936,
      "pect": 937,
      "aces": 938,
      "ress": 939,
      "men": 940,
      "five": 941,
      "speci": 942,
      "space": 943,
      "sub": 944,
      "wal": 945,
      "ah": 946,
      "doll": 947,
      "ative": 948,
      "pret": 949,
      "stu": 950,
      "hal": 951,
      "tain": 952,
      "dri": 953,
      "thinking": 954,
      "au": 955,
      "low": 956,
      "war": 957,
      "means": 958,
      "cri": 959,
      "create": 960,
      "ism": 961,
      "took": 962,
      "ket": 963,
      "ction": 964,
      "search": 965,
      "ones": 966,
      "information": 967,
      "ory": 968,
      "kids": 969,
      "project": 970,
      "process": 971,
      "graph": 972,
      "ris": 973,
      "lead": 974,
      "maybe": 975,
      "conne": 976,
      "everything": 977,
      "publ": 978,
      "tre": 979,
      "number": 980,
      "val": 981,
      "food": 982,
      "money": 983,
      "One": 984,
      "eas": 985,
      "Ind": 986,
      "nce": 987,
      "gest": 988,
      "probab": 989,
      "inc": 990,
      "elect": 991,
      "become": 992,
      "making": 993,
      "My": 994,
      "beg": 995,
      "teach": 996,
      "Ne": 997,
      "fun": 998,
      "leg": 999,
      "getting": 1000,
      "struct": 1001,
      "left": 1002,
      "ran": 1003,
      "ible": 1004,
      "ident": 1005,
      "fut": 1006,
      "enough": 1007,
      "view": 1008,
      "resp": 1009,
      "interesting": 1010,
      "quite": 1011,
      "best": 1012,
      "air": 1013,
      "energy": 1014,
      "ready": 1015,
      "possible": 1016,
      "sense": 1017,
      "half": 1018,
      "fu": 1019,
      "gover": 1020,
      "These": 1021,
      "llow": 1022,
      "cons": 1023,
      "contro": 1024,
      "social": 1025,
      "cap": 1026,
      "govern": 1027,
      "product": 1028,
      "lan": 1029,
      "ouse": 1030,
      "future": 1031,
      "reg": 1032,
      "month": 1033,
      "As": 1034,
      "ount": 1035,
      "glo": 1036,
      "probably": 1037,
      "whe": 1038,
      "happened": 1039,
      "building": 1040,
      "mode": 1041,
      "ital": 1042,
      "Here": 1043,
      "She": 1044,
      "allow": 1045,
      "vide": 1046,
      "grou": 1047,
      "bor": 1048,
      "talking": 1049,
      "pie": 1050,
      "ctor": 1051,
      "planet": 1052,
      "science": 1053,
      "stuff": 1054,
      "iting": 1055,
      "pat": 1056,
      "pass": 1057,
      "For": 1058,
      "wee": 1059,
      "mor": 1060,
      "pop": 1061,
      "ines": 1062,
      "moment": 1063,
      "Is": 1064,
      "cle": 1065,
      "ican": 1066,
      "ability": 1067,
      "lives": 1068,
      "ash": 1069,
      "Let": 1070,
      "ng": 1071,
      "told": 1072,
      "mag": 1073,
      "answ": 1074,
      "sign": 1075,
      "ply": 1076,
      "keep": 1077,
      "ately": 1078,
      "cus": 1079,
      "without": 1080,
      "hour": 1081,
      "reason": 1082,
      "pretty": 1083,
      "os": 1084,
      "member": 1085,
      "yes": 1086,
      "ices": 1087,
      "viron": 1088,
      "ang": 1089,
      "tra": 1090,
      "else": 1091,
      "business": 1092,
      "bad": 1093,
      "countries": 1094,
      "dollars": 1095,
      "anything": 1096,
      "beaut": 1097,
      "vel": 1098,
      "oc": 1099,
      "gram": 1100,
      "fig": 1101,
      "such": 1102,
      "hope": 1103,
      "job": 1104,
      "nor": 1105,
      "Why": 1106,
      "200": 1107,
      "environ": 1108,
      "phys": 1109,
      "prof": 1110,
      "seen": 1111,
      "ince": 1112,
      "unt": 1113,
      "issu": 1114,
      "pho": 1115,
      "pare": 1116,
      "across": 1117,
      "jo": 1118,
      "saw": 1119,
      "scient": 1120,
      "sit": 1121,
      "sound": 1122,
      "verse": 1123,
      "Chin": 1124,
      "ark": 1125,
      "bring": 1126,
      "makes": 1127,
      "living": 1128,
      "says": 1129,
      "ric": 1130,
      "ants": 1131,
      "educ": 1132,
      "Africa": 1133,
      "ering": 1134,
      "fort": 1135,
      "uring": 1136,
      "experience": 1137,
      "ying": 1138,
      "present": 1139,
      "All": 1140,
      "wond": 1141,
      "matter": 1142,
      "asked": 1143,
      "case": 1144,
      "goes": 1145,
      "certain": 1146,
      "idd": 1147,
      "simple": 1148,
      "ient": 1149,
      "later": 1150,
      "list": 1151,
      "particular": 1152,
      "ont": 1153,
      "having": 1154,
      "30": 1155,
      "char": 1156,
      "connect": 1157,
      "effect": 1158,
      "ead": 1159,
      "ided": 1160,
      "works": 1161,
      "wa": 1162,
      "happens": 1163,
      "complete": 1164,
      "mother": 1165,
      "begin": 1166,
      "ced": 1167,
      "tom": 1168,
      "ousand": 1169,
      "city": 1170,
      "order": 1171,
      "New": 1172,
      "mach": 1173,
      "fac": 1174,
      "cam": 1175,
      "while": 1176,
      "plic": 1177,
      "computer": 1178,
      "cult": 1179,
      "six": 1180,
      "fish": 1181,
      "picture": 1182,
      "ality": 1183,
      "iter": 1184,
      "uro": 1185,
      "thousand": 1186,
      "met": 1187,
      "days": 1188,
      "family": 1189,
      "photo": 1190,
      "pain": 1191,
      "ety": 1192,
      "problems": 1193,
      "equ": 1194,
      "tem": 1195,
      "environment": 1196,
      "Ear": 1197,
      "ith": 1198,
      "blo": 1199,
      "io": 1200,
      "ention": 1201,
      "research": 1202,
      "Some": 1203,
      "langu": 1204,
      "global": 1205,
      "polit": 1206,
      "Go": 1207,
      "single": 1208,
      "sure": 1209,
      "tru": 1210,
      "ilt": 1211,
      "cord": 1212,
      "ili": 1213,
      "stre": 1214,
      "music": 1215,
      "ED": 1216,
      "test": 1217,
      "almost": 1218,
      "evol": 1219,
      "public": 1220,
      "Inter": 1221,
      "basically": 1222,
      "watch": 1223,
      "cha": 1224,
      "night": 1225,
      "vol": 1226,
      "amaz": 1227,
      "inside": 1228,
      "suc": 1229,
      "billion": 1230,
      "hear": 1231,
      "treat": 1232,
      "ulation": 1233,
      "words": 1234,
      "Earth": 1235,
      "bro": 1236,
      "young": 1237,
      "yet": 1238,
      "disco": 1239,
      "bed": 1240,
      "saying": 1241,
      "contin": 1242,
      "ously": 1243,
      "dist": 1244,
      "Mo": 1245,
      "guy": 1246,
      "whether": 1247,
      "once": 1248,
      "serv": 1249,
      "state": 1250,
      "iful": 1251,
      "ken": 1252,
      "ages": 1253,
      "cu": 1254,
      "nothing": 1255,
      "itive": 1256,
      "unch": 1257,
      "heart": 1258,
      "class": 1259,
      "aster": 1260,
      "ivid": 1261,
      "cost": 1262,
      "looked": 1263,
      "mic": 1264,
      "Do": 1265,
      "remember": 1266,
      "bio": 1267,
      "already": 1268,
      "ied": 1269,
      "An": 1270,
      "uce": 1271,
      "wrong": 1272,
      "someone": 1273,
      "answer": 1274,
      "ib": 1275,
      "exact": 1276,
      "both": 1277,
      "incred": 1278,
      "acy": 1279,
      "ideas": 1280,
      "100": 1281,
      "house": 1282,
      "within": 1283,
      "program": 1284,
      "ury": 1285,
      "hu": 1286,
      "heard": 1287,
      "dep": 1288,
      "community": 1289,
      "large": 1290,
      "history": 1291,
      "Ar": 1292,
      "gn": 1293,
      "looks": 1294,
      "cells": 1295,
      "walk": 1296,
      "true": 1297,
      "dire": 1298,
      "mil": 1299,
      "kill": 1300,
      "myself": 1301,
      "gir": 1302,
      "wonder": 1303,
      "amazing": 1304,
      "often": 1305,
      "oper": 1306,
      "figure": 1307,
      "ground": 1308,
      "chall": 1309,
      "undred": 1310,
      "beautiful": 1311,
      "built": 1312,
      "ush": 1313,
      "imagine": 1314,
      "gets": 1315,
      "nam": 1316,
      "ield": 1317,
      "parent": 1318,
      "hold": 1319,
      "Al": 1320,
      "fil": 1321,
      "cul": 1322,
      "den": 1323,
      "pay": 1324,
      "mater": 1325,
      "action": 1326,
      "hy": 1327,
      "hundred": 1328,
      "piece": 1329,
      "United": 1330,
      "ator": 1331,
      "entire": 1332,
      "government": 1333,
      "front": 1334,
      "months": 1335,
      "TED": 1336,
      "ivity": 1337,
      "couple": 1338,
      "fund": 1339,
      "ix": 1340,
      "cut": 1341,
      "scal": 1342,
      "individ": 1343,
      "law": 1344,
      "result": 1345,
      "language": 1346,
      "cancer": 1347,
      "places": 1348,
      "species": 1349,
      "appro": 1350,
      "incre": 1351,
      "free": 1352,
      "iddle": 1353,
      "control": 1354,
      "bers": 1355,
      "adv": 1356,
      "group": 1357,
      "must": 1358,
      "though": 1359,
      "dev": 1360,
      "Or": 1361,
      "plain": 1362,
      "robot": 1363,
      "isn": 1364,
      "engine": 1365,
      "model": 1366,
      "prot": 1367,
      "imp": 1368,
      "train": 1369,
      "beha": 1370,
      "follow": 1371,
      "until": 1372,
      "OK": 1373,
      "utes": 1374,
      "clear": 1375,
      "level": 1376,
      "taking": 1377,
      "ization": 1378,
      "everybody": 1379,
      "video": 1380,
      "name": 1381,
      "wasn": 1382,
      "fre": 1383,
      "friends": 1384,
      "Internet": 1385,
      "igh": 1386,
      "Pe": 1387,
      "decided": 1388,
      "completely": 1389,
      "won": 1390,
      "Every": 1391,
      "Se": 1392,
      "pris": 1393,
      "education": 1394,
      "ues": 1395,
      "quick": 1396,
      "Ok": 1397,
      "dro": 1398,
      "behavi": 1399,
      "study": 1400,
      "universe": 1401,
      "ien": 1402,
      "vo": 1403,
      "deal": 1404,
      "stories": 1405,
      "aud": 1406,
      "spend": 1407,
      "ail": 1408,
      "key": 1409,
      "atic": 1410,
      "exactly": 1411,
      "lab": 1412,
      "stop": 1413,
      "nature": 1414,
      "oce": 1415,
      "States": 1416,
      "exc": 1417,
      "object": 1418,
      "bs": 1419,
      "tool": 1420,
      "students": 1421,
      "rad": 1422,
      "became": 1423,
      "15": 1424,
      "respon": 1425,
      "game": 1426,
      "third": 1427,
      "appe": 1428,
      "God": 1429,
      "success": 1430,
      "since": 1431,
      "fully": 1432,
      "happening": 1433,
      "turns": 1434,
      "mess": 1435,
      "que": 1436,
      "meet": 1437,
      "animals": 1438,
      "somebody": 1439,
      "close": 1440,
      "fly": 1441,
      "knew": 1442,
      "sho": 1443,
      "itself": 1444,
      "acter": 1445,
      "der": 1446,
      "share": 1447,
      "huge": 1448,
      "tors": 1449,
      "experim": 1450,
      "woman": 1451,
      "NA": 1452,
      "inno": 1453,
      "market": 1454,
      "ourselves": 1455,
      "kinds": 1456,
      "ped": 1457,
      "ional": 1458,
      "learned": 1459,
      "ton": 1460,
      "wind": 1461,
      "outh": 1462,
      "text": 1463,
      "company": 1464,
      "India": 1465,
      "relation": 1466,
      "sion": 1467,
      "mass": 1468,
      "systems": 1469,
      "hours": 1470,
      "cogn": 1471,
      "haps": 1472,
      "America": 1473,
      "At": 1474,
      "happy": 1475,
      "logical": 1476,
      "society": 1477,
      "Can": 1478,
      "minutes": 1479,
      "collect": 1480,
      "themselves": 1481,
      "questions": 1482,
      "phone": 1483,
      "clim": 1484,
      "along": 1485,
      "arr": 1486,
      "drug": 1487,
      "raw": 1488,
      "past": 1489,
      "complex": 1490,
      "ming": 1491,
      "national": 1492,
      "created": 1493,
      "ples": 1494,
      "against": 1495,
      "American": 1496,
      "itting": 1497,
      "var": 1498,
      "meas": 1499,
      "ake": 1500,
      "ier": 1501,
      "opport": 1502,
      "versity": 1503,
      "rather": 1504,
      "field": 1505,
      "opportun": 1506,
      "expect": 1507,
      "ste": 1508,
      "indust": 1509,
      "por": 1510,
      "worked": 1511,
      "fer": 1512,
      "Then": 1513,
      "pred": 1514,
      "ease": 1515,
      "oh": 1516,
      "...": 1517,
      "Okay": 1518,
      "century": 1519,
      "uses": 1520,
      "ted": 1521,
      "couldn": 1522,
      "least": 1523,
      "others": 1524,
      "flu": 1525,
      "ature": 1526,
      "ork": 1527,
      "guys": 1528,
      "paper": 1529,
      "speak": 1530,
      "sometimes": 1531,
      "diffic": 1532,
      "ished": 1533,
      "amount": 1534,
      "natural": 1535,
      "Oh": 1536,
      "depend": 1537,
      "pot": 1538,
      "exist": 1539,
      "father": 1540,
      "liter": 1541,
      "demo": 1542,
      "China": 1543,
      "based": 1544,
      "step": 1545,
      "deep": 1546,
      "early": 1547,
      "thousands": 1548,
      "ele": 1549,
      "team": 1550,
      "news": 1551,
      "turned": 1552,
      "gave": 1553,
      "mill": 1554,
      "wards": 1555,
      "ling": 1556,
      "fall": 1557,
      "ats": 1558,
      "disease": 1559,
      "reli": 1560,
      "seven": 1561,
      "istic": 1562,
      "lots": 1563,
      "dom": 1564,
      "instead": 1565,
      "innov": 1566,
      "40": 1567,
      "ze": 1568,
      "posed": 1569,
      "Euro": 1570,
      "cir": 1571,
      "ban": 1572,
      "coll": 1573,
      "known": 1574,
      "everyone": 1575,
      "sens": 1576,
      "hor": 1577,
      "ots": 1578,
      "changed": 1579,
      "To": 1580,
      "tin": 1581,
      "taken": 1582,
      "spect": 1583,
      "oil": 1584,
      "ream": 1585,
      "protect": 1586,
      "lt": 1587,
      "Br": 1588,
      "ither": 1589,
      "relationship": 1590,
      "uck": 1591,
      "behavior": 1592,
      "pur": 1593,
      "machine": 1594,
      "sex": 1595,
      "scale": 1596,
      "dig": 1597,
      "full": 1598,
      "recent": 1599,
      "death": 1600,
      "trad": 1601,
      "60": 1602,
      "har": 1603,
      "break": 1604,
      "outside": 1605,
      "black": 1606,
      "week": 1607,
      "main": 1608,
      "ives": 1609,
      "vision": 1610,
      "difference": 1611,
      "typ": 1612,
      "learning": 1613,
      "ians": 1614,
      "invest": 1615,
      "ially": 1616,
      "moving": 1617,
      "perform": 1618,
      "ordin": 1619,
      "record": 1620,
      "fail": 1621,
      "ases": 1622,
      "given": 1623,
      "hind": 1624,
      "win": 1625,
      "ribut": 1626,
      "pped": 1627,
      "listen": 1628,
      "tail": 1629,
      "patter": 1630,
      "York": 1631,
      "vered": 1632,
      "Europe": 1633,
      "En": 1634,
      "area": 1635,
      "pattern": 1636,
      "aged": 1637,
      "middle": 1638,
      "ider": 1639,
      "18": 1640,
      "Af": 1641,
      "sent": 1642,
      "micro": 1643,
      "compan": 1644,
      "ral": 1645,
      "12": 1646,
      "size": 1647,
      "tend": 1648,
      "perhaps": 1649,
      "yourself": 1650,
      "green": 1651,
      "Li": 1652,
      "beginning": 1653,
      "psy": 1654,
      "ror": 1655,
      "ential": 1656,
      "easy": 1657,
      "flo": 1658,
      "non": 1659,
      "sour": 1660,
      "og": 1661,
      "colle": 1662,
      "eyes": 1663,
      "short": 1664,
      "issue": 1665,
      "incl": 1666,
      "leave": 1667,
      "cities": 1668,
      "squ": 1669,
      "cop": 1670,
      "terms": 1671,
      "sym": 1672,
      "parents": 1673,
      "ances": 1674,
      "aring": 1675,
      "verage": 1676,
      "ients": 1677,
      "De": 1678,
      "explain": 1679,
      "cks": 1680,
      "Lo": 1681,
      "ames": 1682,
      "takes": 1683,
      "communic": 1684,
      "difficult": 1685,
      "jour": 1686,
      "population": 1687,
      "On": 1688,
      "sum": 1689,
      "reach": 1690,
      "ster": 1691,
      "perfect": 1692,
      "culture": 1693,
      "street": 1694,
      "emp": 1695,
      "solute": 1696,
      "draw": 1697,
      "parts": 1698,
      "pet": 1699,
      "viol": 1700,
      "obvi": 1701,
      "common": 1702,
      "sequ": 1703,
      "seeing": 1704,
      "needs": 1705,
      "support": 1706,
      "foot": 1707,
      "invol": 1708,
      "ax": 1709,
      "behind": 1710,
      "grad": 1711,
      "finally": 1712,
      "oud": 1713,
      "ocean": 1714,
      "local": 1715,
      "grand": 1716,
      "path": 1717,
      "acc": 1718,
      "force": 1719,
      "super": 1720,
      "ben": 1721,
      "wit": 1722,
      "pract": 1723,
      "jor": 1724,
      "impro": 1725,
      "feed": 1726,
      "sug": 1727,
      "wonderful": 1728,
      "neur": 1729,
      "evolution": 1730,
      "ument": 1731,
      "spir": 1732,
      "hands": 1733,
      "economic": 1734,
      "eight": 1735,
      "pick": 1736,
      "rent": 1737,
      "cannot": 1738,
      "tract": 1739,
      "decis": 1740,
      "began": 1741,
      "doctor": 1742,
      "dream": 1743,
      "idence": 1744,
      "possib": 1745,
      "soft": 1746,
      "powerful": 1747,
      "during": 1748,
      "event": 1749,
      "longer": 1750,
      "Nor": 1751,
      "image": 1752,
      "blue": 1753,
      "Fr": 1754,
      "sun": 1755,
      "ude": 1756,
      "extra": 1757,
      "simply": 1758,
      "companies": 1759,
      "box": 1760,
      "board": 1761,
      "Ye": 1762,
      "pose": 1763,
      "astic": 1764,
      "explo": 1765,
      "People": 1766,
      "bar": 1767,
      "ging": 1768,
      "extre": 1769,
      "major": 1770,
      "famili": 1771,
      "era": 1772,
      "sed": 1773,
      "itions": 1774,
      "access": 1775,
      "utions": 1776,
      "knowled": 1777,
      "resour": 1778,
      "eat": 1779,
      "realized": 1780,
      "dark": 1781,
      "ament": 1782,
      "strong": 1783,
      "stay": 1784,
      "cial": 1785,
      "defin": 1786,
      "needed": 1787,
      "Re": 1788,
      "whatever": 1789,
      "lling": 1790,
      "itect": 1791,
      "dan": 1792,
      "emot": 1793,
      "Just": 1794,
      "absolute": 1795,
      "reality": 1796,
      "interested": 1797,
      "ball": 1798,
      "personal": 1799,
      "surv": 1800,
      "ru": 1801,
      "tried": 1802,
      "wall": 1803,
      "poor": 1804,
      "gone": 1805,
      "ired": 1806,
      "lay": 1807,
      "hood": 1808,
      "special": 1809,
      "type": 1810,
      "80": 1811,
      "forward": 1812,
      "felt": 1813,
      "buy": 1814,
      "bon": 1815,
      "fast": 1816,
      "ties": 1817,
      "growth": 1818,
      "ange": 1819,
      "experiment": 1820,
      "lands": 1821,
      "scre": 1822,
      "recogn": 1823,
      "mark": 1824,
      "media": 1825,
      "value": 1826,
      "bes": 1827,
      "rate": 1828,
      "situ": 1829,
      "born": 1830,
      "ware": 1831,
      "ination": 1832,
      "medi": 1833,
      "plant": 1834,
      "quickly": 1835,
      "une": 1836,
      "Not": 1837,
      "ared": 1838,
      "sea": 1839,
      "pen": 1840,
      "architect": 1841,
      "DNA": 1842,
      "conv": 1843,
      "gs": 1844,
      "send": 1845,
      "road": 1846,
      "spent": 1847,
      "predict": 1848,
      "sis": 1849,
      "ilar": 1850,
      "ten": 1851,
      "safe": 1852,
      "descri": 1853,
      "books": 1854,
      "nal": 1855,
      "row": 1856,
      "ney": 1857,
      "approach": 1858,
      "May": 1859,
      "ides": 1860,
      "knowledge": 1861,
      "CA": 1862,
      "humans": 1863,
      "Wor": 1864,
      "tow": 1865,
      "weeks": 1866,
      "ried": 1867,
      "feet": 1868,
      "cool": 1869,
      "shows": 1870,
      "spec": 1871,
      "opportunity": 1872,
      "democr": 1873,
      "aren": 1874,
      "ron": 1875,
      "sitting": 1876,
      "trave": 1877,
      "forest": 1878,
      "bri": 1879,
      "prom": 1880,
      "structure": 1881,
      "ended": 1882,
      "write": 1883,
      "animal": 1884,
      "worth": 1885,
      "either": 1886,
      "near": 1887,
      "lost": 1888,
      "surface": 1889,
      "political": 1890,
      "ged": 1891,
      "rich": 1892,
      "term": 1893,
      "photograph": 1894,
      "enge": 1895,
      "orig": 1896,
      "measure": 1897,
      "Yes": 1898,
      "changes": 1899,
      "ather": 1900,
      "Yeah": 1901,
      "stage": 1902,
      "economy": 1903,
      "blood": 1904,
      "Right": 1905,
      "terri": 1906,
      "consum": 1907,
      "morning": 1908,
      "solution": 1909,
      "ery": 1910,
      "sil": 1911,
      "incredible": 1912,
      "slow": 1913,
      "ined": 1914,
      "logies": 1915,
      "extreme": 1916,
      "rain": 1917,
      "areas": 1918,
      "mole": 1919,
      "wouldn": 1920,
      "telling": 1921,
      "ators": 1922,
      "flow": 1923,
      "bottom": 1924,
      "patients": 1925,
      "ively": 1926,
      "ills": 1927,
      "challenge": 1928,
      "fight": 1929,
      "anal": 1930,
      "giving": 1931,
      "impact": 1932,
      "average": 1933,
      "attention": 1934,
      "app": 1935,
      "Le": 1936,
      "enter": 1937,
      "profess": 1938,
      "nice": 1939,
      "ford": 1940,
      "ustain": 1941,
      "direct": 1942,
      "interact": 1943,
      "vent": 1944,
      "gress": 1945,
      "ouch": 1946,
      "comb": 1947,
      "growing": 1948,
      "Our": 1949,
      "meaning": 1950,
      "mot": 1951,
      "sli": 1952,
      "lies": 1953,
      "sport": 1954,
      "aid": 1955,
      "ni": 1956,
      "ox": 1957,
      "normal": 1958,
      "girl": 1959,
      "dden": 1960,
      "fine": 1961,
      "realize": 1962,
      "numbers": 1963,
      "brought": 1964,
      "crit": 1965,
      "risk": 1966,
      "individual": 1967,
      "sudden": 1968,
      "arm": 1969,
      "quality": 1970,
      "developed": 1971,
      "white": 1972,
      "entially": 1973,
      "invent": 1974,
      "physical": 1975,
      "rele": 1976,
      "ump": 1977,
      "relig": 1978,
      "feeling": 1979,
      "scientists": 1980,
      "gain": 1981,
      "hot": 1982,
      "material": 1983,
      "ned": 1984,
      "vor": 1985,
      "soon": 1986,
      "World": 1987,
      "die": 1988,
      "ler": 1989,
      "sc": 1990,
      "sustain": 1991,
      "ught": 1992,
      "chem": 1993,
      "ring": 1994,
      "fair": 1995,
      "seems": 1996,
      "wrote": 1997,
      "solve": 1998,
      "card": 1999,
      "ane": 2000,
      "print": 2001,
      "climate": 2002,
      "ny": 2003,
      "peri": 2004,
      "playing": 2005,
      "ony": 2006,
      "aking": 2007,
      "dam": 2008,
      "emer": 2009,
      "film": 2010,
      "izing": 2011,
      "running": 2012,
      "alone": 2013,
      "moder": 2014,
      "map": 2015,
      "zer": 2016,
      "conf": 2017,
      "wish": 2018,
      "literally": 2019,
      "post": 2020,
      "understanding": 2021,
      "instit": 2022,
      "issues": 2023,
      "lled": 2024,
      "technologies": 2025,
      "glish": 2026,
      "English": 2027,
      "90": 2028,
      "dim": 2029,
      "theory": 2030,
      "position": 2031,
      "color": 2032,
      "produce": 2033,
      "fundament": 2034,
      "ordinary": 2035,
      "sle": 2036,
      "miles": 2037,
      "requ": 2038,
      "similar": 2039,
      "din": 2040,
      "tran": 2041,
      "medic": 2042,
      "current": 2043,
      "changing": 2044,
      "hundreds": 2045,
      "concept": 2046,
      "uced": 2047,
      "starting": 2048,
      "Chris": 2049,
      "fear": 2050,
      "tellig": 2051,
      "serious": 2052,
      "anyone": 2053,
      "images": 2054,
      "spread": 2055,
      "likely": 2056,
      "favor": 2057,
      "ibly": 2058,
      "fur": 2059,
      "ials": 2060,
      "neigh": 2061,
      "consci": 2062,
      "sphere": 2063,
      "electric": 2064,
      "cially": 2065,
      "fortun": 2066,
      "millions": 2067,
      "cing": 2068,
      "pan": 2069,
      "audience": 2070,
      "11": 2071,
      "vill": 2072,
      "asking": 2073,
      "aging": 2074,
      "thank": 2075,
      "poll": 2076,
      "tools": 2077,
      "eye": 2078,
      "focus": 2079,
      "ption": 2080,
      "gives": 2081,
      "male": 2082,
      "suggest": 2083,
      "fill": 2084,
      "icy": 2085,
      "tele": 2086,
      "track": 2087,
      "70": 2088,
      "Bo": 2089,
      "wood": 2090,
      "creating": 2091,
      "avail": 2092,
      "25": 2093,
      "moved": 2094,
      "dead": 2095,
      "joy": 2096,
      "ilities": 2097,
      "guess": 2098,
      "touch": 2099,
      "hosp": 2100,
      "experien": 2101,
      "hon": 2102,
      "affect": 2103,
      "compass": 2104,
      "responsi": 2105,
      "tradition": 2106,
      "cars": 2107,
      "represent": 2108,
      "revol": 2109,
      "loc": 2110,
      "patient": 2111,
      "modern": 2112,
      "gas": 2113,
      "proper": 2114,
      "ensive": 2115,
      "rul": 2116,
      "sal": 2117,
      "among": 2118,
      "development": 2119,
      "stat": 2120,
      "ades": 2121,
      "center": 2122,
      "forms": 2123,
      "intellig": 2124,
      "priv": 2125,
      "fire": 2126,
      "includ": 2127,
      "seem": 2128,
      "discovered": 2129,
      "Where": 2130,
      "div": 2131,
      "eth": 2132,
      "ref": 2133,
      "online": 2134,
      "absolutely": 2135,
      "uals": 2136,
      "late": 2137,
      "round": 2138,
      "showed": 2139,
      "function": 2140,
      "recently": 2141,
      "ene": 2142,
      "movement": 2143,
      "With": 2144,
      "song": 2145,
      "ased": 2146,
      "amp": 2147,
      "truth": 2148,
      "bird": 2149,
      "kets": 2150,
      "developing": 2151,
      "source": 2152,
      "onto": 2153,
      "ore": 2154,
      "omen": 2155,
      "Don": 2156,
      "sat": 2157,
      "astr": 2158,
      "generation": 2159,
      "industry": 2160,
      "town": 2161,
      "ches": 2162,
      "band": 2163,
      "asing": 2164,
      "icans": 2165,
      "Look": 2166,
      "benef": 2167,
      "visual": 2168,
      "choice": 2169,
      "voice": 2170,
      "gal": 2171,
      "convers": 2172,
      "carbon": 2173,
      "talked": 2174,
      "connected": 2175,
      "door": 2176,
      "chance": 2177,
      "writing": 2178,
      "designed": 2179,
      "dest": 2180,
      "lines": 2181,
      "push": 2182,
      "table": 2183,
      "shape": 2184,
      "resources": 2185,
      "rid": 2186,
      "inal": 2187,
      "pression": 2188,
      "available": 2189,
      "iant": 2190,
      "rup": 2191,
      "reasons": 2192,
      "subject": 2193,
      "incredibly": 2194,
      "ses": 2195,
      "rod": 2196,
      "knows": 2197,
      "attack": 2198,
      "ountain": 2199,
      "innovation": 2200,
      "gor": 2201,
      "tic": 2202,
      "concer": 2203,
      "period": 2204,
      "liz": 2205,
      "rial": 2206,
      "tern": 2207,
      "sever": 2208,
      "rece": 2209,
      "bey": 2210,
      "curity": 2211,
      "Co": 2212,
      "mechan": 2213,
      "abor": 2214,
      "sold": 2215,
      "prov": 2216,
      "mathem": 2217,
      "save": 2218,
      "evidence": 2219,
      "mul": 2220,
      "trust": 2221,
      "haven": 2222,
      "lived": 2223,
      "situation": 2224,
      "speed": 2225,
      "respond": 2226,
      "involved": 2227,
      "South": 2228,
      "dy": 2229,
      "games": 2230,
      "ali": 2231,
      "pictures": 2232,
      "ouble": 2233,
      "necess": 2234,
      "cover": 2235,
      "Chinese": 2236,
      "iction": 2237,
      "strate": 2238,
      "tiny": 2239,
      "Man": 2240,
      "dimens": 2241,
      "compassion": 2242,
      "nine": 2243,
      "tot": 2244,
      "becomes": 2245,
      "computers": 2246,
      "By": 2247,
      "network": 2248,
      "mp": 2249,
      "nuc": 2250,
      "inci": 2251,
      "espe": 2252,
      "surpris": 2253,
      "especially": 2254,
      "aware": 2255,
      "construct": 2256,
      "bigger": 2257,
      "cli": 2258,
      "ences": 2259,
      "challeng": 2260,
      "except": 2261,
      "Who": 2262,
      "putting": 2263,
      "baby": 2264,
      "message": 2265,
      "ado": 2266,
      "genet": 2267,
      "transform": 2268,
      "ugh": 2269,
      "ift": 2270,
      "smart": 2271,
      "psycho": 2272,
      "Com": 2273,
      "Ro": 2274,
      "sl": 2275,
      "ows": 2276,
      "Con": 2277,
      "Of": 2278,
      "report": 2279,
      "soph": 2280,
      "syn": 2281,
      "drive": 2282,
      "groups": 2283,
      "multi": 2284,
      "mail": 2285,
      "medical": 2286,
      "conscious": 2287,
      "asc": 2288,
      "bacter": 2289,
      "thor": 2290,
      "died": 2291,
      "girls": 2292,
      "software": 2293,
      "chemical": 2294,
      "flict": 2295,
      "beyond": 2296,
      "link": 2297,
      "rop": 2298,
      "peace": 2299,
      "inde": 2300,
      "iss": 2301,
      "hit": 2302,
      "ference": 2303,
      "several": 2304,
      "ges": 2305,
      "const": 2306,
      "sleep": 2307,
      "pping": 2308,
      "happiness": 2309,
      "effic": 2310,
      "First": 2311,
      "mand": 2312,
      "suff": 2313,
      "ival": 2314,
      "laugh": 2315,
      "Maybe": 2316,
      "rules": 2317,
      "Ho": 2318,
      "bur": 2319,
      "towards": 2320,
      "istan": 2321,
      "general": 2322,
      "sounds": 2323,
      "ites": 2324,
      "Inst": 2325,
      "solar": 2326,
      "screen": 2327,
      "gent": 2328,
      "ilo": 2329,
      "load": 2330,
      "believ": 2331,
      "Goog": 2332,
      "ley": 2333,
      "abo": 2334,
      "capital": 2335,
      "particularly": 2336,
      "danger": 2337,
      "tion": 2338,
      "stick": 2339,
      "usion": 2340,
      "eco": 2341,
      "fing": 2342,
      "device": 2343,
      "revolution": 2344,
      "smo": 2345,
      "anybody": 2346,
      "scientific": 2347,
      "drugs": 2348,
      "Google": 2349,
      "mers": 2350,
      "mission": 2351,
      "rais": 2352,
      "fant": 2353,
      "walking": 2354,
      "vari": 2355,
      "ably": 2356,
      "progress": 2357,
      "fold": 2358,
      "character": 2359,
      "activ": 2360,
      "minute": 2361,
      "kept": 2362,
      "phen": 2363,
      "largest": 2364,
      "oid": 2365,
      "rap": 2366,
      "fuel": 2367,
      "certainly": 2368,
      "positive": 2369,
      "potential": 2370,
      "fix": 2371,
      "plants": 2372,
      "office": 2373,
      "schools": 2374,
      "security": 2375,
      "boy": 2376,
      "genes": 2377,
      "basic": 2378,
      "ium": 2379,
      "tar": 2380,
      "conflict": 2381,
      "clin": 2382,
      "examples": 2383,
      "Any": 2384,
      "arg": 2385,
      "lose": 2386,
      "showing": 2387,
      "range": 2388,
      "bir": 2389,
      "digital": 2390,
      "mine": 2391,
      "rand": 2392,
      "ub": 2393,
      "pers": 2394,
      "princi": 2395,
      "pair": 2396,
      "materials": 2397,
      "sor": 2398,
      "vert": 2399,
      "journey": 2400,
      "obviously": 2401,
      "context": 2402,
      "antic": 2403,
      "virt": 2404,
      "totally": 2405,
      "ency": 2406,
      "sem": 2407,
      "clean": 2408,
      "violence": 2409,
      "further": 2410,
      "wide": 2411,
      "deli": 2412,
      "starts": 2413,
      "memory": 2414,
      "After": 2415,
      "role": 2416,
      "brid": 2417,
      "biggest": 2418,
      "occur": 2419,
      "500": 2420,
      "lex": 2421,
      "accept": 2422,
      "wants": 2423,
      "craz": 2424,
      "exciting": 2425,
      "projects": 2426,
      "teachers": 2427,
      "Sh": 2428,
      "account": 2429,
      "comfort": 2430,
      "fundamental": 2431,
      "cit": 2432,
      "pover": 2433,
      "introd": 2434,
      "passion": 2435,
      "extremely": 2436,
      "Ste": 2437,
      "threat": 2438,
      "antly": 2439,
      "nobody": 2440,
      "carry": 2441,
      "skin": 2442,
      "results": 2443,
      "Po": 2444,
      "student": 2445,
      "Joh": 2446,
      "ech": 2447,
      "mous": 2448,
      "secre": 2449,
      "everywhere": 2450,
      "standard": 2451,
      "particip": 2452,
      "activity": 2453,
      "okay": 2454,
      "code": 2455,
      "brains": 2456,
      "higher": 2457,
      "tw": 2458,
      "sell": 2459,
      "meant": 2460,
      "notice": 2461,
      "cris": 2462,
      "birth": 2463,
      "mountain": 2464,
      "sco": 2465,
      "sect": 2466,
      "imate": 2467,
      "terror": 2468,
      "mental": 2469,
      "leader": 2470,
      "camera": 2471,
      "plicated": 2472,
      "named": 2473,
      "neighbor": 2474,
      "IV": 2475,
      "lea": 2476,
      "detail": 2477,
      "ung": 2478,
      "Ph": 2479,
      "loy": 2480,
      "ived": 2481,
      "fortunately": 2482,
      "sand": 2483,
      "tle": 2484,
      "itary": 2485,
      "continue": 2486,
      "ai": 2487,
      "mit": 2488,
      "rect": 2489,
      "web": 2490,
      "standing": 2491,
      "consider": 2492,
      "star": 2493,
      "waste": 2494,
      "apan": 2495,
      "apart": 2496,
      "legal": 2497,
      "response": 2498,
      "Brit": 2499,
      "zero": 2500,
      "ann": 2501,
      "icle": 2502,
      "worse": 2503,
      "itten": 2504,
      "supposed": 2505,
      "Most": 2506,
      "crazy": 2507,
      "poverty": 2508,
      "Japan": 2509,
      "aim": 2510,
      "bul": 2511,
      "da": 2512,
      "weight": 2513,
      "creative": 2514,
      "models": 2515,
      "improve": 2516,
      "separ": 2517,
      "jobs": 2518,
      "North": 2519,
      "diag": 2520,
      "ime": 2521,
      "shop": 2522,
      "choose": 2523,
      "leaders": 2524,
      "democracy": 2525,
      "citiz": 2526,
      "burn": 2527,
      "sky": 2528,
      "discover": 2529,
      "eventually": 2530,
      "favorite": 2531,
      "tens": 2532,
      "movie": 2533,
      "earli": 2534,
      "trees": 2535,
      "allowed": 2536,
      "watching": 2537,
      "nuclear": 2538,
      "bunch": 2539,
      "immedi": 2540,
      "moral": 2541,
      "individuals": 2542,
      "John": 2543,
      "Pro": 2544,
      "page": 2545,
      "adult": 2546,
      "ify": 2547,
      "urban": 2548,
      "agree": 2549,
      "Ge": 2550,
      "faster": 2551,
      "nces": 2552,
      "sess": 2553,
      "arily": 2554,
      "cape": 2555,
      "essentially": 2556,
      "tells": 2557,
      "collabor": 2558,
      "16": 2559,
      "Even": 2560,
      "iversity": 2561,
      "version": 2562,
      "West": 2563,
      "mobi": 2564,
      "Are": 2565,
      "War": 2566,
      "bom": 2567,
      "conditions": 2568,
      "African": 2569,
      "grew": 2570,
      "specific": 2571,
      "Car": 2572,
      "respect": 2573,
      "teacher": 2574,
      "suddenly": 2575,
      ".,": 2576,
      "mir": 2577,
      "pack": 2578,
      "edom": 2579,
      "perspect": 2580,
      "finding": 2581,
      "cat": 2582,
      "shown": 2583,
      "village": 2584,
      "goal": 2585,
      "shot": 2586,
      "pture": 2587,
      "prison": 2588,
      "Ger": 2589,
      "ered": 2590,
      "zz": 2591,
      "dog": 2592,
      "compet": 2593,
      "launch": 2594,
      "sorts": 2595,
      "extraordinary": 2596,
      "mathemat": 2597,
      "indeed": 2598,
      "HIV": 2599,
      "impossible": 2600,
      "ified": 2601,
      "communities": 2602,
      "minds": 2603,
      "site": 2604,
      "doc": 2605,
      "anti": 2606,
      "cked": 2607,
      "labor": 2608,
      "hospital": 2609,
      "14": 2610,
      "bill": 2611,
      "ama": 2612,
      "somewhere": 2613,
      "buildings": 2614,
      "objects": 2615,
      "colleag": 2616,
      "prote": 2617,
      "products": 2618,
      "medicine": 2619,
      "galax": 2620,
      "Tod": 2621,
      "wise": 2622,
      "stri": 2623,
      "ham": 2624,
      "wild": 2625,
      "manage": 2626,
      "pull": 2627,
      "larger": 2628,
      "author": 2629,
      "allows": 2630,
      "pieces": 2631,
      "killed": 2632,
      "Ex": 2633,
      "bank": 2634,
      "cise": 2635,
      "nia": 2636,
      "task": 2637,
      "Those": 2638,
      "signific": 2639,
      "appear": 2640,
      "hom": 2641,
      "rom": 2642,
      "atory": 2643,
      "ables": 2644,
      "dete": 2645,
      "ulate": 2646,
      "blind": 2647,
      "points": 2648,
      "ana": 2649,
      "lif": 2650,
      "taught": 2651,
      "bodies": 2652,
      "temper": 2653,
      "square": 2654,
      "deser": 2655,
      "healthy": 2656,
      "above": 2657,
      "infect": 2658,
      "remark": 2659,
      "wever": 2660,
      "wife": 2661,
      "17": 2662,
      "Mar": 2663,
      "hun": 2664,
      "wait": 2665,
      "increase": 2666,
      "including": 2667,
      "luck": 2668,
      "estern": 2669,
      "complicated": 2670,
      "logists": 2671,
      "univers": 2672,
      "production": 2673,
      "lam": 2674,
      "influ": 2675,
      "ale": 2676,
      "uction": 2677,
      "engage": 2678,
      "cases": 2679,
      "continu": 2680,
      "training": 2681,
      "ded": 2682,
      "discus": 2683,
      "afford": 2684,
      "series": 2685,
      "augh": 2686,
      "truly": 2687,
      "decision": 2688,
      "usually": 2689,
      "ieve": 2690,
      "stra": 2691,
      "reading": 2692,
      "types": 2693,
      "oxy": 2694,
      "Har": 2695,
      "neg": 2696,
      "earth": 2697,
      "biology": 2698,
      "critical": 2699,
      "traditional": 2700,
      "sou": 2701,
      "loved": 2702,
      "beings": 2703,
      "studies": 2704,
      "tree": 2705,
      "ounds": 2706,
      "mention": 2707,
      "price": 2708,
      "written": 2709,
      "older": 2710,
      "glass": 2711,
      "bing": 2712,
      "mist": 2713,
      "alive": 2714,
      "offe": 2715,
      "vels": 2716,
      "seconds": 2717,
      "excited": 2718,
      "phenomen": 2719,
      "!\"": 2720,
      "TV": 2721,
      "bility": 2722,
      "swe": 2723,
      "stars": 2724,
      "cook": 2725,
      "achieve": 2726,
      "gue": 2727,
      "content": 2728,
      "organization": 2729,
      "successful": 2730,
      "policy": 2731,
      "chair": 2732,
      "Like": 2733,
      "families": 2734,
      "electricity": 2735,
      "crisis": 2736,
      "Today": 2737,
      "iced": 2738,
      "neuro": 2739,
      "cru": 2740,
      "international": 2741,
      "plane": 2742,
      "Americans": 2743,
      "distribut": 2744,
      "bacteria": 2745,
      "Act": 2746,
      "somehow": 2747,
      "expensive": 2748,
      "straight": 2749,
      "fasc": 2750,
      "lap": 2751,
      "lower": 2752,
      "income": 2753,
      "upon": 2754,
      "cold": 2755,
      "hero": 2756,
      "Dr": 2757,
      "useum": 2758,
      "199": 2759,
      "service": 2760,
      "Mic": 2761,
      "lack": 2762,
      "active": 2763,
      "store": 2764,
      "region": 2765,
      "college": 2766,
      "conversation": 2767,
      "catch": 2768,
      "Which": 2769,
      "finan": 2770,
      "SA": 2771,
      "ending": 2772,
      "logist": 2773,
      "physics": 2774,
      "freedom": 2775,
      "patterns": 2776,
      "perspective": 2777,
      "daugh": 2778,
      "ires": 2779,
      "rough": 2780,
      "insp": 2781,
      "atom": 2782,
      "isms": 2783,
      "trick": 2784,
      "civi": 2785,
      "increasing": 2786,
      "familiar": 2787,
      "East": 2788,
      "fit": 2789,
      "enor": 2790,
      "deb": 2791,
      "rights": 2792,
      "gotten": 2793,
      "akes": 2794,
      "smaller": 2795,
      "Imag": 2796,
      "ik": 2797,
      "onom": 2798,
      "actual": 2799,
      "provide": 2800,
      "gradu": 2801,
      "ina": 2802,
      "itch": 2803,
      "famous": 2804,
      "magic": 2805,
      "bol": 2806,
      "base": 2807,
      "quant": 2808,
      "calcul": 2809,
      "nation": 2810,
      "anywhere": 2811,
      "foc": 2812,
      "treatment": 2813,
      "recognize": 2814,
      "nut": 2815,
      "slight": 2816,
      "infr": 2817,
      "willing": 2818,
      "himself": 2819,
      "robots": 2820,
      "oun": 2821,
      "unders": 2822,
      "lights": 2823,
      "neurons": 2824,
      "rise": 2825,
      "alter": 2826,
      "bel": 2827,
      "military": 2828,
      "performance": 2829,
      "Mus": 2830,
      "match": 2831,
      "narr": 2832,
      "swi": 2833,
      "saving": 2834,
      "anymore": 2835,
      "please": 2836,
      "cross": 2837,
      "faces": 2838,
      "scan": 2839,
      "webs": 2840,
      "veh": 2841,
      "habit": 2842,
      "throw": 2843,
      "doctors": 2844,
      "architecture": 2845,
      "cas": 2846,
      "stress": 2847,
      "math": 2848,
      "uments": 2849,
      "cles": 2850,
      "greater": 2851,
      "organiz": 2852,
      "machines": 2853,
      "transport": 2854,
      "cup": 2855,
      "preci": 2856,
      "Afgh": 2857,
      "ners": 2858,
      "sam": 2859,
      "effective": 2860,
      "private": 2861,
      "reflect": 2862,
      "mobile": 2863,
      "Pr": 2864,
      "condition": 2865,
      "driving": 2866,
      "massive": 2867,
      "decisions": 2868,
      "cure": 2869,
      "jud": 2870,
      "urt": 2871,
      "strange": 2872,
      "skills": 2873,
      "travel": 2874,
      "weren": 2875,
      "engineering": 2876,
      "clearly": 2877,
      "earlier": 2878,
      "13": 2879,
      "Ano": 2880,
      "Me": 2881,
      "email": 2882,
      "sn": 2883,
      "thern": 2884,
      "cient": 2885,
      "legs": 2886,
      "painting": 2887,
      "His": 2888,
      "rem": 2889,
      "ories": 2890,
      "becoming": 2891,
      "demand": 2892,
      "tered": 2893,
      "proto": 2894,
      "solutions": 2895,
      "police": 2896,
      "direction": 2897,
      "genetic": 2898,
      "Another": 2899,
      "Col": 2900,
      "race": 2901,
      "sus": 2902,
      "tu": 2903,
      "yeah": 2904,
      "address": 2905,
      "brother": 2906,
      "spirit": 2907,
      "listening": 2908,
      "City": 2909,
      "teen": 2910,
      "plac": 2911,
      "throughout": 2912,
      "drink": 2913,
      "capac": 2914,
      "vil": 2915,
      "instr": 2916,
      "itation": 2917,
      "forth": 2918,
      "roll": 2919,
      "worry": 2920,
      "surger": 2921,
      "greatest": 2922,
      "costs": 2923,
      "invented": 2924,
      "itude": 2925,
      "optim": 2926,
      "def": 2927,
      "therefore": 2928,
      "quar": 2929,
      "contain": 2930,
      "unique": 2931,
      "Afghan": 2932,
      "iet": 2933,
      "strug": 2934,
      "practice": 2935,
      "explore": 2936,
      "mas": 2937,
      "na": 2938,
      "levels": 2939,
      "adap": 2940,
      "ceed": 2941,
      "cloud": 2942,
      "decade": 2943,
      "related": 2944,
      "fascin": 2945,
      "Imagine": 2946,
      "website": 2947,
      "arri": 2948,
      "mak": 2949,
      "dangerous": 2950,
      "meth": 2951,
      "integr": 2952,
      "connection": 2953,
      "Aust": 2954,
      "ID": 2955,
      "cis": 2956,
      "hol": 2957,
      "hous": 2958,
      "hair": 2959,
      "demon": 2960,
      "beauty": 2961,
      "waiting": 2962,
      "environmental": 2963,
      "intelligence": 2964,
      "fantastic": 2965,
      "21": 2966,
      "300": 2967,
      "lebr": 2968,
      "weap": 2969,
      "celebr": 2970,
      "raz": 2971,
      "final": 2972,
      "counter": 2973,
      "hop": 2974,
      "ray": 2975,
      "ram": 2976,
      "init": 2977,
      "central": 2978,
      "contribut": 2979,
      "tempt": 2980,
      "floor": 2981,
      "bits": 2982,
      "tood": 2983,
      "enjoy": 2984,
      "stream": 2985,
      "cro": 2986,
      "atically": 2987,
      "iling": 2988,
      "virus": 2989,
      "values": 2990,
      "walked": 2991,
      "obvious": 2992,
      "understood": 2993,
      "Lon": 2994,
      "ito": 2995,
      "sw": 2996,
      "atmo": 2997,
      "frame": 2998,
      "express": 2999,
      "minis": 3000,
      "University": 3001,
      "random": 3002,
      "immediately": 3003,
      "Tal": 3004,
      "services": 3005,
      "institutions": 3006,
      "ahead": 3007,
      "pes": 3008,
      "select": 3009,
      "wealth": 3010,
      "various": 3011,
      "Per": 3012,
      "ga": 3013,
      "lad": 3014,
      "wel": 3015,
      "ently": 3016,
      "prevent": 3017,
      "dollar": 3018,
      "teaching": 3019,
      "Arab": 3020,
      "meeting": 3021,
      "sequence": 3022,
      "Your": 3023,
      "iger": 3024,
      "phones": 3025,
      "effects": 3026,
      "sustainable": 3027,
      "secret": 3028,
      "24": 3029,
      "Ken": 3030,
      "Two": 3031,
      "Western": 3032,
      "cket": 3033,
      "plastic": 3034,
      "attle": 3035,
      "career": 3036,
      "ping": 3037,
      "encour": 3038,
      "apply": 3039,
      "belief": 3040,
      "popular": 3041,
      "decades": 3042,
      "relative": 3043,
      "electron": 3044,
      "honest": 3045,
      "je": 3046,
      "tun": 3047,
      "humanity": 3048,
      "decide": 3049,
      "transl": 3050,
      "physic": 3051,
      "drop": 3052,
      "remarkable": 3053,
      "London": 3054,
      "none": 3055,
      "concl": 3056,
      "interview": 3057,
      "although": 3058,
      "Second": 3059,
      "neighborhood": 3060,
      "wed": 3061,
      "ishing": 3062,
      "paid": 3063,
      "check": 3064,
      "wheel": 3065,
      "curi": 3066,
      "copy": 3067,
      "dynam": 3068,
      "mut": 3069,
      "aries": 3070,
      "ends": 3071,
      "expand": 3072,
      "governments": 3073,
      "radio": 3074,
      "possibly": 3075,
      "bridge": 3076,
      "lic": 3077,
      "useful": 3078,
      "saur": 3079,
      "cry": 3080,
      "choices": 3081,
      "flying": 3082,
      "astruct": 3083,
      "eties": 3084,
      "associ": 3085,
      "babies": 3086,
      "instance": 3087,
      "graphic": 3088,
      "following": 3089,
      "terrible": 3090,
      "Cali": 3091,
      "sch": 3092,
      "yle": 3093,
      "raise": 3094,
      "surve": 3095,
      "societies": 3096,
      "pressure": 3097,
      "cultural": 3098,
      "enormous": 3099,
      "Califor": 3100,
      "Rus": 3101,
      "remain": 3102,
      "ico": 3103,
      "craf": 3104,
      "played": 3105,
      "motiv": 3106,
      "cast": 3107,
      "trade": 3108,
      "diseas": 3109,
      "challenges": 3110,
      "capacity": 3111,
      "aper": 3112,
      "mam": 3113,
      "insect": 3114,
      "aris": 3115,
      "seas": 3116,
      "iding": 3117,
      "broad": 3118,
      "From": 3119,
      "infrastruct": 3120,
      "atmosphere": 3121,
      "aur": 3122,
      "states": 3123,
      "rock": 3124,
      "anyway": 3125,
      "manu": 3126,
      "offic": 3127,
      "rooms": 3128,
      "ju": 3129,
      "worst": 3130,
      "istics": 3131,
      "wered": 3132,
      "brand": 3133,
      "paign": 3134,
      "summer": 3135,
      "California": 3136,
      "bees": 3137,
      "orders": 3138,
      "markets": 3139,
      "ucing": 3140,
      "politics": 3141,
      "purpose": 3142,
      "mend": 3143,
      "mort": 3144,
      "total": 3145,
      "published": 3146,
      "survive": 3147,
      "slide": 3148,
      "diseases": 3149,
      "forces": 3150,
      "imately": 3151,
      "speaking": 3152,
      "hole": 3153,
      "commer": 3154,
      "techn": 3155,
      "creativity": 3156,
      "helped": 3157,
      "supply": 3158,
      "crimin": 3159,
      "efficient": 3160,
      "temperature": 3161,
      "slightly": 3162,
      "cred": 3163,
      "fir": 3164,
      "artist": 3165,
      "iles": 3166,
      "destro": 3167,
      "Great": 3168,
      "Sy": 3169,
      "swit": 3170,
      "repre": 3171,
      "below": 3172,
      "loss": 3173,
      "compe": 3174,
      "umb": 3175,
      "itted": 3176,
      "philo": 3177,
      "Indian": 3178,
      "ashing": 3179,
      "dad": 3180,
      "female": 3181,
      "surround": 3182,
      "biological": 3183,
      "relationships": 3184,
      "citizens": 3185,
      "Many": 3186,
      "agric": 3187,
      "mostly": 3188,
      "assum": 3189,
      "join": 3190,
      "laws": 3191,
      "industrial": 3192,
      "television": 3193,
      "financial": 3194,
      "civiliz": 3195,
      "swim": 3196,
      "philosoph": 3197,
      "agricult": 3198,
      "CO": 3199,
      "Je": 3200,
      "Jo": 3201,
      "afr": 3202,
      "lying": 3203,
      "meters": 3204,
      "wire": 3205,
      "termin": 3206,
      "ustr": 3207,
      "whose": 3208,
      "produced": 3209,
      "shared": 3210,
      "colleagues": 3211,
      "afraid": 3212,
      "athe": 3213,
      "blog": 3214,
      "fro": 3215,
      "mid": 3216,
      "heat": 3217,
      "unk": 3218,
      "rule": 3219,
      "directly": 3220,
      "dou": 3221,
      "osaur": 3222,
      "scar": 3223,
      "ancy": 3224,
      "beat": 3225,
      "Think": 3226,
      "ext": 3227,
      "Char": 3228,
      "profit": 3229,
      "Ira": 3230,
      "fat": 3231,
      "sen": 3232,
      "boys": 3233,
      "claim": 3234,
      "crow": 3235,
      "scientist": 3236,
      "religion": 3237,
      "diagno": 3238,
      "National": 3239,
      "eating": 3240,
      "sme": 3241,
      "spo": 3242,
      "tremend": 3243,
      "programs": 3244,
      "surgery": 3245,
      "forget": 3246,
      "causes": 3247,
      "profound": 3248,
      "Good": 3249,
      "journal": 3250,
      "resist": 3251,
      "techni": 3252,
      "corpor": 3253,
      "original": 3254,
      "Mars": 3255,
      "dance": 3256,
      "pite": 3257,
      "edge": 3258,
      "liber": 3259,
      "shar": 3260,
      "core": 3261,
      "dependent": 3262,
      "oxygen": 3263,
      "infrastructure": 3264,
      "itor": 3265,
      "van": 3266,
      "entrepre": 3267,
      "noticed": 3268,
      "spaces": 3269,
      "differences": 3270,
      "turning": 3271,
      "answers": 3272,
      "camp": 3273,
      "evolved": 3274,
      "organizations": 3275,
      "iers": 3276,
      "tex": 3277,
      "compon": 3278,
      "stopped": 3279,
      "funny": 3280,
      "Islam": 3281,
      "cules": 3282,
      "comfortable": 3283,
      "twice": 3284,
      "document": 3285,
      "Afghanistan": 3286,
      "manufact": 3287,
      "Iraq": 3288,
      "kil": 3289,
      "aly": 3290,
      "geo": 3291,
      "tax": 3292,
      "partner": 3293,
      "closer": 3294,
      "campaign": 3295,
      "streets": 3296,
      "mig": 3297,
      "mix": 3298,
      "wis": 3299,
      "thetic": 3300,
      "sector": 3301,
      "trouble": 3302,
      "plor": 3303,
      "workers": 3304,
      "embr": 3305,
      "prise": 3306,
      "rench": 3307,
      "members": 3308,
      "plications": 3309,
      "shoot": 3310,
      "symbol": 3311,
      "experiences": 3312,
      "birds": 3313,
      "daughter": 3314,
      "Iran": 3315,
      "bound": 3316,
      "ior": 3317,
      "held": 3318,
      "lie": 3319,
      "suit": 3320,
      "pleas": 3321,
      "networks": 3322,
      "advant": 3323,
      "Again": 3324,
      "Dav": 3325,
      "bought": 3326,
      "hus": 3327,
      "hibit": 3328,
      "correct": 3329,
      "surprising": 3330,
      "Face": 3331,
      "San": 3332,
      "bud": 3333,
      "gar": 3334,
      "capture": 3335,
      "seemed": 3336,
      "Hey": 3337,
      "broken": 3338,
      "responsibility": 3339,
      "method": 3340,
      "attract": 3341,
      "boat": 3342,
      "contact": 3343,
      "highly": 3344,
      "corner": 3345,
      "cript": 3346,
      "easily": 3347,
      "bringing": 3348,
      "communicate": 3349,
      "Instead": 3350,
      "alternat": 3351,
      "ked": 3352,
      "remind": 3353,
      "dram": 3354,
      "experiments": 3355,
      "rout": 3356,
      "wash": 3357,
      "knowing": 3358,
      "ets": 3359,
      "formed": 3360,
      "speech": 3361,
      "missing": 3362,
      "rapid": 3363,
      "Mon": 3364,
      "ds": 3365,
      "vast": 3366,
      "ened": 3367,
      "icles": 3368,
      "oppos": 3369,
      "atell": 3370,
      "grade": 3371,
      "carto": 3372,
      "feels": 3373,
      "hydro": 3374,
      "circ": 3375,
      "emotional": 3376,
      "molecules": 3377,
      "significant": 3378,
      "Ber": 3379,
      "dying": 3380,
      "rare": 3381,
      "shift": 3382,
      "creates": 3383,
      "Isra": 3384,
      "ashion": 3385,
      "analy": 3386,
      "hall": 3387,
      "hack": 3388,
      "tum": 3389,
      "inspir": 3390,
      "contr": 3391,
      "cies": 3392,
      "differently": 3393,
      "lets": 3394,
      "diversity": 3395,
      "grees": 3396,
      "passed": 3397,
      "gorith": 3398,
      "Her": 3399,
      "Med": 3400,
      "mat": 3401,
      "gold": 3402,
      "mod": 3403,
      "degrees": 3404,
      "party": 3405,
      "bub": 3406,
      "genome": 3407,
      "basis": 3408,
      "switch": 3409,
      "Braz": 3410,
      "satell": 3411,
      "anced": 3412,
      "algorith": 3413,
      "actions": 3414,
      "gene": 3415,
      "helping": 3416,
      "cycle": 3417,
      "planets": 3418,
      "spending": 3419,
      "deliver": 3420,
      "David": 3421,
      "Gu": 3422,
      "Mex": 3423,
      "jump": 3424,
      "sick": 3425,
      "ulner": 3426,
      "reduce": 3427,
      "designers": 3428,
      "Thanks": 3429,
      "imagination": 3430,
      "bag": 3431,
      "rot": 3432,
      "sad": 3433,
      "ancient": 3434,
      "conserv": 3435,
      "note": 3436,
      "sharing": 3437,
      "window": 3438,
      "complexity": 3439,
      "consciousness": 3440,
      "ding": 3441,
      "gap": 3442,
      "ology": 3443,
      "thes": 3444,
      "nel": 3445,
      "traf": 3446,
      "exer": 3447,
      "explor": 3448,
      "nearly": 3449,
      "finger": 3450,
      "focused": 3451,
      "Austral": 3452,
      "Dar": 3453,
      "Sp": 3454,
      "lied": 3455,
      "opt": 3456,
      "ender": 3457,
      "communication": 3458,
      "Actually": 3459,
      "400": 3460,
      "Mr": 3461,
      "fashion": 3462,
      "tough": 3463,
      "vit": 3464,
      "org": 3465,
      "etc": 3466,
      "primar": 3467,
      "psych": 3468,
      "Take": 3469,
      "zo": 3470,
      "atives": 3471,
      "anda": 3472,
      "usual": 3473,
      "background": 3474,
      "balance": 3475,
      "charge": 3476,
      "metaph": 3477,
      "landscape": 3478,
      "dinosaur": 3479,
      "target": 3480,
      "cot": 3481,
      "gle": 3482,
      "hang": 3483,
      "repe": 3484,
      "stren": 3485,
      "therap": 3486,
      "coal": 3487,
      "electr": 3488,
      "regular": 3489,
      "lat": 3490,
      "vacc": 3491,
      "inct": 3492,
      "conference": 3493,
      "studying": 3494,
      "trial": 3495,
      "ception": 3496,
      "block": 3497,
      "possibility": 3498,
      "Facebook": 3499,
      "Did": 3500,
      "Ju": 3501,
      "Over": 3502,
      "Tim": 3503,
      "bread": 3504,
      "mouth": 3505,
      "pal": 3506,
      "ids": 3507,
      "prepare": 3508,
      "cording": 3509,
      "hearing": 3510,
      "devices": 3511,
      "opportunities": 3512,
      "offee": 3513,
      "inspired": 3514,
      "weird": 3515,
      "yellow": 3516,
      "bled": 3517,
      "shel": 3518,
      "effort": 3519,
      "addition": 3520,
      "brill": 3521,
      "religious": 3522,
      "fairly": 3523,
      "IDS": 3524,
      "streng": 3525,
      "Ha": 3526,
      "bone": 3527,
      "vulner": 3528,
      "icon": 3529,
      "hell": 3530,
      "spot": 3531,
      "breast": 3532,
      "operation": 3533,
      "radi": 3534,
      "domin": 3535,
      "tremendous": 3536,
      "mes": 3537,
      "ander": 3538,
      "arian": 3539,
      "flag": 3540,
      "moments": 3541,
      "More": 3542,
      "collap": 3543,
      "sexual": 3544,
      "lucky": 3545,
      "husband": 3546,
      "Dan": 3547,
      "Middle": 3548,
      "coffee": 3549,
      "forever": 3550,
      "serve": 3551,
      "cheap": 3552,
      "graphy": 3553,
      "structures": 3554,
      "raised": 3555,
      "gun": 3556,
      "gree": 3557,
      "lu": 3558,
      "master": 3559,
      "scr": 3560,
      "assem": 3561,
      "ils": 3562,
      "Web": 3563,
      "avoid": 3564,
      "valu": 3565,
      "identity": 3566,
      "figured": 3567,
      "failure": 3568,
      "necessary": 3569,
      "vict": 3570,
      "wave": 3571,
      "plat": 3572,
      "intu": 3573,
      "sites": 3574,
      "distance": 3575,
      "Ab": 3576,
      "aspect": 3577,
      "covered": 3578,
      "creatures": 3579,
      "magaz": 3580,
      "dreams": 3581,
      "definition": 3582,
      "victim": 3583,
      "Fe": 3584,
      "Gre": 3585,
      "Will": 3586,
      "museum": 3587,
      "ening": 3588,
      "weak": 3589,
      "notion": 3590,
      "erson": 3591,
      "park": 3592,
      "farmers": 3593,
      "responsible": 3594,
      "necessarily": 3595,
      "negative": 3596,
      "Ob": 3597,
      "Tr": 3598,
      "artists": 3599,
      "creation": 3600,
      "finished": 3601,
      "autom": 3602,
      "trend": 3603,
      "norm": 3604,
      "argument": 3605,
      "detect": 3606,
      "phenomenon": 3607,
      "opposite": 3608,
      "Mc": 3609,
      "flies": 3610,
      "tit": 3611,
      "uary": 3612,
      "ret": 3613,
      "reve": 3614,
      "degree": 3615,
      "myster": 3616,
      "justice": 3617,
      "despite": 3618,
      "particles": 3619,
      "fresh": 3620,
      "European": 3621,
      "kilome": 3622,
      "stor": 3623,
      "ya": 3624,
      "zen": 3625,
      "poem": 3626,
      "idden": 3627,
      "describe": 3628,
      "benefits": 3629,
      "entrepreneur": 3630,
      "AIDS": 3631,
      "Would": 3632,
      "giant": 3633,
      "seed": 3634,
      "ards": 3635,
      "histor": 3636,
      "198": 3637,
      "heads": 3638,
      "easier": 3639,
      "gentle": 3640,
      "Su": 3641,
      "fol": 3642,
      "zed": 3643,
      "otic": 3644,
      "gry": 3645,
      "coast": 3646,
      "events": 3647,
      "itely": 3648,
      "foreign": 3649,
      "importantly": 3650,
      "corrup": 3651,
      "capable": 3652,
      "entirely": 3653,
      "frequ": 3654,
      "accident": 3655,
      "suffering": 3656,
      "sorry": 3657,
      "craft": 3658,
      "Aud": 3659,
      "Rich": 3660,
      "ky": 3661,
      "chick": 3662,
      "roof": 3663,
      "ada": 3664,
      "decl": 3665,
      "ami": 3666,
      "urch": 3667,
      "quote": 3668,
      "leading": 3669,
      "signal": 3670,
      "billions": 3671,
      "Niger": 3672,
      "batter": 3673,
      "cand": 3674,
      "date": 3675,
      "pi": 3676,
      "tons": 3677,
      "accur": 3678,
      "meter": 3679,
      "holding": 3680,
      "Cam": 3681,
      "Eng": 3682,
      "French": 3683,
      "IT": 3684,
      "pig": 3685,
      "scul": 3686,
      "ths": 3687,
      "atures": 3688,
      "sets": 3689,
      "hea": 3690,
      "river": 3691,
      "ager": 3692,
      "appreci": 3693,
      "cope": 3694,
      "bling": 3695,
      "click": 3696,
      "commit": 3697,
      "letter": 3698,
      "invis": 3699,
      "pressed": 3700,
      "elements": 3701,
      "sequences": 3702,
      "Fran": 3703,
      "Very": 3704,
      "bly": 3705,
      "lin": 3706,
      "tag": 3707,
      "anger": 3708,
      "attempt": 3709,
      "concent": 3710,
      "indic": 3711,
      "calls": 3712,
      "helps": 3713,
      "shouldn": 3714,
      "opened": 3715,
      "Asia": 3716,
      "dimensional": 3717,
      "However": 3718,
      "Have": 3719,
      "rist": 3720,
      "icking": 3721,
      "moves": 3722,
      "trained": 3723,
      "See": 3724,
      "virtual": 3725,
      "traffic": 3726,
      "bright": 3727,
      "fed": 3728,
      "fab": 3729,
      "icians": 3730,
      "vere": 3731,
      "abilities": 3732,
      "sume": 3733,
      "brings": 3734,
      "previ": 3735,
      "restaur": 3736,
      "puzz": 3737,
      "drag": 3738,
      "leads": 3739,
      "Sometimes": 3740,
      "emotion": 3741,
      "require": 3742,
      "believed": 3743,
      "leadership": 3744,
      "remote": 3745,
      "weapons": 3746,
      "Am": 3747,
      "llect": 3748,
      "mouse": 3749,
      "rit": 3750,
      "ino": 3751,
      "inner": 3752,
      "return": 3753,
      "aste": 3754,
      "heav": 3755,
      "ulations": 3756,
      "bert": 3757,
      "ysis": 3758,
      "visit": 3759,
      "limited": 3760,
      "organisms": 3761,
      "discovery": 3762,
      "oceans": 3763,
      "placed": 3764,
      "smell": 3765,
      "150": 3766,
      "Big": 3767,
      "Once": 3768,
      "eg": 3769,
      "tissue": 3770,
      "determin": 3771,
      "qual": 3772,
      "puts": 3773,
      "epide": 3774,
      "faith": 3775,
      "studied": 3776,
      "competition": 3777,
      "commercial": 3778,
      "brilliant": 3779,
      "gard": 3780,
      "pounds": 3781,
      "zing": 3782,
      "inally": 3783,
      "idents": 3784,
      "ured": 3785,
      "grass": 3786,
      "proud": 3787,
      "host": 3788,
      "closed": 3789,
      "tempor": 3790,
      "double": 3791,
      "fle": 3792,
      "vest": 3793,
      "rew": 3794,
      "maint": 3795,
      "grav": 3796,
      "offer": 3797,
      "intellect": 3798,
      "cycl": 3799,
      "stuck": 3800,
      "Life": 3801,
      "Des": 3802,
      "Egy": 3803,
      "Te": 3804,
      "cular": 3805,
      "sac": 3806,
      "celer": 3807,
      "opin": 3808,
      "ifically": 3809,
      "unte": 3810,
      "arts": 3811,
      "els": 3812,
      "newsp": 3813,
      "ultimately": 3814,
      "colors": 3815,
      "mothers": 3816,
      "advantage": 3817,
      "Ac": 3818,
      "mber": 3819,
      "anth": 3820,
      "wear": 3821,
      "fell": 3822,
      "dered": 3823,
      "ulous": 3824,
      "unfortunately": 3825,
      "extend": 3826,
      "apped": 3827,
      "childhood": 3828,
      "matters": 3829,
      "typical": 3830,
      "investment": 3831,
      "relev": 3832,
      "institution": 3833,
      "adults": 3834,
      "destroy": 3835,
      "hate": 3836,
      "ns": 3837,
      "rum": 3838,
      "incent": 3839,
      "grown": 3840,
      "factory": 3841,
      "succeed": 3842,
      "horri": 3843,
      "rian": 3844,
      "caught": 3845,
      "noise": 3846,
      "strain": 3847,
      "farm": 3848,
      "miss": 3849,
      "appeared": 3850,
      "failed": 3851,
      "majority": 3852,
      "convinc": 3853,
      "fighting": 3854,
      "professional": 3855,
      "filled": 3856,
      "concerned": 3857,
      "CO2": 3858,
      "45": 3859,
      "Sun": 3860,
      "fli": 3861,
      "tour": 3862,
      "tox": 3863,
      "asp": 3864,
      "moon": 3865,
      "till": 3866,
      "prior": 3867,
      "subst": 3868,
      "operating": 3869,
      "flight": 3870,
      "lesson": 3871,
      "names": 3872,
      "deeply": 3873,
      "promise": 3874,
      "leaving": 3875,
      "cate": 3876,
      "irt": 3877,
      "motor": 3878,
      "frag": 3879,
      "compared": 3880,
      "attach": 3881,
      "university": 3882,
      "slowly": 3883,
      "benefit": 3884,
      "constantly": 3885,
      "influence": 3886,
      "insects": 3887,
      "RI": 3888,
      "aul": 3889,
      "dia": 3890,
      "rational": 3891,
      "ull": 3892,
      "seat": 3893,
      "stim": 3894,
      "bee": 3895,
      "terday": 3896,
      "extin": 3897,
      "civil": 3898,
      "grab": 3899,
      "resident": 3900,
      "surprise": 3901,
      "cognitive": 3902,
      "fascinating": 3903,
      "bow": 3904,
      "lunch": 3905,
      "pun": 3906,
      "acceler": 3907,
      "ulated": 3908,
      "agers": 3909,
      "surge": 3910,
      "emotions": 3911,
      "protein": 3912,
      "demonstr": 3913,
      "99": 3914,
      "DP": 3915,
      "Red": 3916,
      "Sha": 3917,
      "zon": 3918,
      "itute": 3919,
      "argue": 3920,
      "metal": 3921,
      "soil": 3922,
      "olly": 3923,
      "bles": 3924,
      "blow": 3925,
      "crash": 3926,
      "install": 3927,
      "insight": 3928,
      "organic": 3929,
      "paint": 3930,
      "treated": 3931,
      "walls": 3932,
      "sister": 3933,
      "described": 3934,
      "consumption": 3935,
      "metaphor": 3936,
      "Ma": 3937,
      "Ple": 3938,
      "arms": 3939,
      "forced": 3940,
      "depression": 3941,
      "spring": 3942,
      "izes": 3943,
      "managed": 3944,
      "president": 3945,
      "married": 3946,
      "cared": 3947,
      "paying": 3948,
      "Everybody": 3949,
      "collective": 3950,
      "circu": 3951,
      "strategy": 3952,
      "British": 3953,
      "Ben": 3954,
      "cod": 3955,
      "nur": 3956,
      "replace": 3957,
      "oted": 3958,
      "rig": 3959,
      "otherwise": 3960,
      "destr": 3961,
      "interaction": 3962,
      "skill": 3963,
      "warm": 3964,
      "begins": 3965,
      "angle": 3966,
      "cule": 3967,
      "engineers": 3968,
      "feedback": 3969,
      "transp": 3970,
      "35": 3971,
      "nan": 3972,
      "reward": 3973,
      "partment": 3974,
      "operate": 3975,
      "desert": 3976,
      "civilization": 3977,
      "invisible": 3978,
      "75": 3979,
      "due": 3980,
      "eper": 3981,
      "gri": 3982,
      "leng": 3983,
      "vac": 3984,
      "eral": 3985,
      "peak": 3986,
      "riage": 3987,
      "plus": 3988,
      "talks": 3989,
      "clock": 3990,
      "magnet": 3991,
      "equal": 3992,
      "equival": 3993,
      "location": 3994,
      "Audience": 3995,
      "Ed": 3996,
      "eli": 3997,
      "san": 3998,
      "acqu": 3999,
      "mov": 4000,
      "precise": 4001,
      "prim": 4002,
      "driven": 4003,
      "consist": 4004,
      "steps": 4005,
      "perfectly": 4006,
      "mathematics": 4007,
      "mentioned": 4008,
      "quantum": 4009,
      "adapt": 4010,
      "Min": 4011,
      "ato": 4012,
      "ston": 4013,
      "stone": 4014,
      "meat": 4015,
      "urally": 4016,
      "foss": 4017,
      "obsess": 4018,
      "coral": 4019,
      "Does": 4020,
      "appropri": 4021,
      "emplo": 4022,
      "80s": 4023,
      "brief": 4024,
      "currently": 4025,
      "separate": 4026,
      "Israel": 4027,
      "Twit": 4028,
      "iver": 4029,
      "chip": 4030,
      "dol": 4031,
      "unless": 4032,
      "artific": 4033,
      "solved": 4034,
      "generate": 4035,
      "element": 4036,
      "bomb": 4037,
      "homes": 4038,
      "vehicle": 4039,
      "Washing": 4040,
      "py": 4041,
      "va": 4042,
      "section": 4043,
      "wearing": 4044,
      "lid": 4045,
      "hasn": 4046,
      "presents": 4047,
      "planning": 4048,
      "plication": 4049,
      "volunte": 4050,
      "followed": 4051,
      "principles": 4052,
      "graduate": 4053,
      "wisdom": 4054,
      "Mexico": 4055,
      "aran": 4056,
      "whom": 4057,
      "fellow": 4058,
      "worried": 4059,
      "ulf": 4060,
      "Three": 4061,
      "everyday": 4062,
      "crack": 4063,
      "conduct": 4064,
      "magn": 4065,
      "chain": 4066,
      "circle": 4067,
      "molecule": 4068,
      "surprised": 4069,
      "galaxies": 4070,
      "Each": 4071,
      "Hum": 4072,
      "Pal": 4073,
      "etry": 4074,
      "spl": 4075,
      "aling": 4076,
      "prop": 4077,
      "desire": 4078,
      "colon": 4079,
      "20th": 4080,
      "fourth": 4081,
      "cortex": 4082,
      "ships": 4083,
      "warming": 4084,
      "languages": 4085,
      "layer": 4086,
      "70s": 4087,
      "alternative": 4088,
      "Brazil": 4089,
      "Val": 4090,
      "cow": 4091,
      "nic": 4092,
      "tap": 4093,
      "wing": 4094,
      "belong": 4095,
      "invited": 4096,
      "harder": 4097,
      "setting": 4098,
      "custom": 4099,
      "equip": 4100,
      "eleph": 4101,
      "Australia": 4102,
      "magazine": 4103,
      "England": 4104,
      "equivalent": 4105,
      "Washington": 4106,
      "Bu": 4107,
      "iev": 4108,
      "stup": 4109,
      "weather": 4110,
      "actor": 4111,
      "ops": 4112,
      "exhibit": 4113,
      "gency": 4114,
      "compare": 4115,
      "designer": 4116,
      "breath": 4117,
      "keeping": 4118,
      "businesses": 4119,
      "continent": 4120,
      "motion": 4121,
      "multiple": 4122,
      "agriculture": 4123,
      "Richard": 4124,
      "Francis": 4125,
      "Ke": 4126,
      "gather": 4127,
      "gender": 4128,
      "iber": 4129,
      "sight": 4130,
      "rely": 4131,
      "define": 4132,
      "bra": 4133,
      "bran": 4134,
      "trip": 4135,
      "nerv": 4136,
      "organized": 4137,
      "investig": 4138,
      "drawing": 4139,
      "scen": 4140,
      "received": 4141,
      "construction": 4142,
      "galaxy": 4143,
      "debate": 4144,
      "crowd": 4145,
      "Darwin": 4146,
      "Twitter": 4147,
      "pages": 4148,
      "orge": 4149,
      "advert": 4150,
      "emic": 4151,
      "versus": 4152,
      "photos": 4153,
      "Everything": 4154,
      "resource": 4155,
      "survival": 4156,
      "90s": 4157,
      "migr": 4158,
      "battle": 4159,
      "thesis": 4160,
      "rend": 4161,
      "users": 4162,
      "exists": 4163,
      "tian": 4164,
      "emb": 4165,
      "ensity": 4166,
      "highest": 4167,
      "mistry": 4168,
      "crime": 4169,
      "identify": 4170,
      "hopefully": 4171,
      "watched": 4172,
      "classroom": 4173,
      "fields": 4174,
      "existence": 4175,
      "launched": 4176,
      "Ad": 4177,
      "Bar": 4178,
      "CE": 4179,
      "dry": 4180,
      "bear": 4181,
      "acts": 4182,
      "quiet": 4183,
      "thinks": 4184,
      "calling": 4185,
      "expert": 4186,
      "imagin": 4187,
      "processes": 4188,
      "testing": 4189,
      "forests": 4190,
      "cards": 4191,
      "dinner": 4192,
      "seriously": 4193,
      "intelligent": 4194,
      "soldiers": 4195,
      "strateg": 4196,
      "clinical": 4197,
      "associated": 4198,
      "normally": 4199,
      "equipment": 4200,
      "Bill": 4201,
      "Other": 4202,
      "fal": 4203,
      "nest": 4204,
      "pil": 4205,
      "rat": 4206,
      "south": 4207,
      "station": 4208,
      "keys": 4209,
      "saved": 4210,
      "grain": 4211,
      "player": 4212,
      "ification": 4213,
      "north": 4214,
      "sentence": 4215,
      "houses": 4216,
      "stupid": 4217,
      "mile": 4218,
      "tes": 4219,
      "tall": 4220,
      "vic": 4221,
      "review": 4222,
      "acle": 4223,
      "expression": 4224,
      "pros": 4225,
      "evil": 4226,
      "chemistry": 4227,
      "economics": 4228,
      "driver": 4229,
      "engineer": 4230,
      "satis": 4231,
      "technical": 4232,
      "credit": 4233,
      "Green": 4234,
      "ubl": 4235,
      "toward": 4236,
      "Child": 4237,
      "Christ": 4238,
      "players": 4239,
      "opening": 4240,
      "cutting": 4241,
      "leaves": 4242,
      "Germany": 4243,
      "distribution": 4244,
      "kilometers": 4245,
      "nervous": 4246,
      "Bas": 4247,
      "Park": 4248,
      "hidden": 4249,
      "rural": 4250,
      "ube": 4251,
      "veget": 4252,
      "according": 4253,
      "ads": 4254,
      "article": 4255,
      "igno": 4256,
      "reef": 4257,
      "shapes": 4258,
      "inste": 4259,
      "trill": 4260,
      "yesterday": 4261,
      "connections": 4262,
      "harm": 4263,
      "property": 4264,
      "statistics": 4265,
      "Japanese": 4266,
      "circum": 4267,
      "Einste": 4268,
      "dress": 4269,
      "sla": 4270,
      "infin": 4271,
      "accom": 4272,
      "ays": 4273,
      "caused": 4274,
      "acting": 4275,
      "novel": 4276,
      "stood": 4277,
      "polic": 4278,
      "transformation": 4279,
      "auto": 4280,
      "waves": 4281,
      "hypo": 4282,
      "safety": 4283,
      "scene": 4284,
      "increasingly": 4285,
      "struggle": 4286,
      "mortality": 4287,
      "heavy": 4288,
      "employe": 4289,
      "dolph": 4290,
      "island": 4291,
      "liked": 4292,
      "tric": 4293,
      "explan": 4294,
      "illness": 4295,
      "importance": 4296,
      "generations": 4297,
      "males": 4298,
      "fuge": 4299,
      "signals": 4300,
      "possibilities": 4301,
      "chemicals": 4302,
      "George": 4303,
      "instrument": 4304,
      "dial": 4305,
      "vention": 4306,
      "reaction": 4307,
      "eness": 4308,
      "abl": 4309,
      "fron": 4310,
      "shif": 4311,
      "estic": 4312,
      "reser": 4313,
      "portion": 4314,
      "aff": 4315,
      "designing": 4316,
      "dealing": 4317,
      "empty": 4318,
      "experienced": 4319,
      "daily": 4320,
      "universal": 4321,
      "spoke": 4322,
      "Times": 4323,
      "folks": 4324,
      "bust": 4325,
      "ius": 4326,
      "rhy": 4327,
      "vard": 4328,
      "theater": 4329,
      "shut": 4330,
      "iving": 4331,
      "goti": 4332,
      "letters": 4333,
      "diet": 4334,
      "awful": 4335,
      "airplane": 4336,
      "shoes": 4337,
      "promis": 4338,
      "analysis": 4339,
      "Come": 4340,
      "King": 4341,
      "Ser": 4342,
      "iat": 4343,
      "yl": 4344,
      "isol": 4345,
      "abstr": 4346,
      "losing": 4347,
      "umber": 4348,
      "vessel": 4349,
      "hip": 4350,
      "producing": 4351,
      "osity": 4352,
      "researchers": 4353,
      "picked": 4354,
      "dimensions": 4355,
      "principle": 4356,
      "Britain": 4357,
      "management": 4358,
      "Kenya": 4359,
      "electrical": 4360,
      "relevant": 4361,
      "movies": 4362,
      "Ah": 4363,
      "Cl": 4364,
      "Gree": 4365,
      "Pri": 4366,
      "Paul": 4367,
      "Wal": 4368,
      "hide": 4369,
      "iest": 4370,
      "inj": 4371,
      "ister": 4372,
      "negoti": 4373,
      "user": 4374,
      "ctions": 4375,
      "Their": 4376,
      "consequences": 4377,
      "essential": 4378,
      "poetry": 4379,
      "hadn": 4380,
      "flat": 4381,
      "facts": 4382,
      "morrow": 4383,
      "occup": 4384,
      "wake": 4385,
      "killing": 4386,
      "convinced": 4387,
      "artificial": 4388,
      "Einstein": 4389,
      "Kore": 4390,
      "eld": 4391,
      "ume": 4392,
      "eras": 4393,
      "aria": 4394,
      "height": 4395,
      "acad": 4396,
      "libr": 4397,
      "perce": 4398,
      "establ": 4399,
      "preser": 4400,
      "limit": 4401,
      "wondering": 4402,
      "sources": 4403,
      "professor": 4404,
      "arrived": 4405,
      "21st": 4406,
      "maintain": 4407,
      "Could": 4408,
      "MIT": 4409,
      "School": 4410,
      "gin": 4411,
      "toi": 4412,
      "tomorrow": 4413,
      "enn": 4414,
      "chimp": 4415,
      "frustr": 4416,
      "powered": 4417,
      "interpret": 4418,
      "finish": 4419,
      "parad": 4420,
      "productive": 4421,
      "signs": 4422,
      "facing": 4423,
      "grandmother": 4424,
      "damage": 4425,
      "holes": 4426,
      "satellite": 4427,
      "Ama": 4428,
      "Last": 4429,
      "Pak": 4430,
      "dots": 4431,
      "mad": 4432,
      "zy": 4433,
      "ison": 4434,
      "iron": 4435,
      "conside": 4436,
      "prove": 4437,
      "whenever": 4438,
      "manip": 4439,
      "aked": 4440,
      "feelings": 4441,
      "viruses": 4442,
      "collection": 4443,
      "expected": 4444,
      "microbes": 4445,
      "concentr": 4446,
      "Pakistan": 4447,
      "considered": 4448,
      "dot": 4449,
      "gall": 4450,
      "kick": 4451,
      "cipl": 4452,
      "empath": 4453,
      "cents": 4454,
      "observ": 4455,
      "marriage": 4456,
      "monitor": 4457,
      "60s": 4458,
      "variety": 4459,
      "curious": 4460,
      "exercise": 4461,
      "Please": 4462,
      "600": 4463,
      "II": 4464,
      "ape": 4465,
      "cil": 4466,
      "mult": 4467,
      "refuge": 4468,
      "encies": 4469,
      "selling": 4470,
      "acters": 4471,
      "lift": 4472,
      "neath": 4473,
      "deeper": 4474,
      "ques": 4475,
      "pray": 4476,
      "marke": 4477,
      "muscle": 4478,
      "Bro": 4479,
      "Os": 4480,
      "rates": 4481,
      "shad": 4482,
      "sides": 4483,
      "independent": 4484,
      "anze": 4485,
      "tories": 4486,
      "alle": 4487,
      "orbit": 4488,
      "youn": 4489,
      "aming": 4490,
      "logic": 4491,
      "desk": 4492,
      "experts": 4493,
      "trials": 4494,
      "characters": 4495,
      "broke": 4496,
      "Harvard": 4497,
      "dynamic": 4498,
      "strength": 4499,
      "corruption": 4500,
      "Swed": 4501,
      "Tom": 4502,
      "apo": 4503,
      "hurt": 4504,
      "pow": 4505,
      "west": 4506,
      "healthcare": 4507,
      "added": 4508,
      "videos": 4509,
      "cultures": 4510,
      "fishing": 4511,
      "advanced": 4512,
      "messages": 4513,
      "Atl": 4514,
      "consumer": 4515,
      "prepared": 4516,
      "valuable": 4517,
      "platform": 4518,
      "battery": 4519,
      "3D": 4520,
      "Fl": 4521,
      "flex": 4522,
      "tur": 4523,
      "winter": 4524,
      "lock": 4525,
      "contract": 4526,
      "achiev": 4527,
      "display": 4528,
      "Stre": 4529,
      "controlled": 4530,
      "iency": 4531,
      "relatively": 4532,
      "budget": 4533,
      "cartoon": 4534,
      "Mart": 4535,
      "President": 4536,
      "Sim": 4537,
      "ba": 4538,
      "pto": 4539,
      "ske": 4540,
      "vote": 4541,
      "lege": 4542,
      "solid": 4543,
      "perman": 4544,
      "exe": 4545,
      "grid": 4546,
      "grap": 4547,
      "underneath": 4548,
      "thoughts": 4549,
      "molecular": 4550,
      "sophistic": 4551,
      "roughly": 4552,
      "rapidly": 4553,
      "dinosaurs": 4554,
      "intellectual": 4555,
      "Sat": 4556,
      "rac": 4557,
      "liqu": 4558,
      "plate": 4559,
      "ideo": 4560,
      "ideal": 4561,
      "worlds": 4562,
      "fewer": 4563,
      "transition": 4564,
      "gling": 4565,
      "privi": 4566,
      "pengu": 4567,
      "requires": 4568,
      "terrorism": 4569,
      "sharks": 4570,
      "epidemic": 4571,
      "length": 4572,
      "mur": 4573,
      "sia": 4574,
      "script": 4575,
      "owner": 4576,
      "assign": 4577,
      "sian": 4578,
      "command": 4579,
      "interface": 4580,
      "carefully": 4581,
      "lawy": 4582,
      "voices": 4583,
      "Canada": 4584,
      "violent": 4585,
      "Frank": 4586,
      "convention": 4587,
      "emerging": 4588,
      "Institute": 4589,
      "carrying": 4590,
      "doub": 4591,
      "Street": 4592,
      "2000": 4593,
      "Center": 4594,
      "Tur": 4595,
      "gift": 4596,
      "pure": 4597,
      "ride": 4598,
      "tro": 4599,
      "uit": 4600,
      "represents": 4601,
      "actors": 4602,
      "teles": 4603,
      "teeth": 4604,
      "ulating": 4605,
      "discipl": 4606,
      "pointed": 4607,
      "risks": 4608,
      "occas": 4609,
      "effectively": 4610,
      "cameras": 4611,
      "honor": 4612,
      "issions": 4613,
      "encourage": 4614,
      "Cor": 4615,
      "hur": 4616,
      "nations": 4617,
      "uces": 4618,
      "vation": 4619,
      "zone": 4620,
      "instruct": 4621,
      "ara": 4622,
      "irty": 4623,
      "imm": 4624,
      "unit": 4625,
      "exchange": 4626,
      "boo": 4627,
      "prefer": 4628,
      "crete": 4629,
      "Ange": 4630,
      "sugar": 4631,
      "specifically": 4632,
      "status": 4633,
      "clip": 4634,
      "introduce": 4635,
      "primary": 4636,
      "GDP": 4637,
      "Vo": 4638,
      "Wik": 4639,
      "ike": 4640,
      "reven": 4641,
      "oting": 4642,
      "amin": 4643,
      "extract": 4644,
      "spin": 4645,
      "lifetime": 4646,
      "served": 4647,
      "engaged": 4648,
      "regard": 4649,
      "behaviors": 4650,
      "definitely": 4651,
      "convince": 4652,
      "release": 4653,
      "Anyway": 4654,
      "introduced": 4655,
      "lady": 4656,
      "components": 4657,
      "vulnerable": 4658,
      "victims": 4659,
      ".'": 4660,
      "Los": 4661,
      "Sci": 4662,
      "gay": 4663,
      "thal": 4664,
      "thri": 4665,
      "edia": 4666,
      "noon": 4667,
      "agre": 4668,
      "movements": 4669,
      "radical": 4670,
      "depends": 4671,
      "situations": 4672,
      "entertain": 4673,
      "properties": 4674,
      "ecosystem": 4675,
      "details": 4676,
      "hydrogen": 4677,
      "Nigeria": 4678,
      "fossil": 4679,
      "Francisco": 4680,
      "chimpanze": 4681,
      "Gal": 4682,
      "Qu": 4683,
      "bum": 4684,
      "snow": 4685,
      "reci": 4686,
      "ission": 4687,
      "argu": 4688,
      "Anderson": 4689,
      "pool": 4690,
      "emissions": 4691,
      "bottle": 4692,
      "steel": 4693,
      "practical": 4694,
      "rub": 4695,
      "released": 4696,
      "Muslim": 4697,
      "makers": 4698,
      "previous": 4699,
      "trillion": 4700,
      "65": 4701,
      "Pac": 4702,
      "Tube": 4703,
      "Wow": 4704,
      "bors": 4705,
      "diction": 4706,
      "pian": 4707,
      "error": 4708,
      "icago": 4709,
      "beach": 4710,
      "quit": 4711,
      "tape": 4712,
      "phr": 4713,
      "Chicago": 4714,
      "interests": 4715,
      "politicians": 4716,
      "protected": 4717,
      "affected": 4718,
      "tension": 4719,
      "atoms": 4720,
      "sample": 4721,
      "season": 4722,
      "appropriate": 4723,
      "circumst": 4724,
      "rhyth": 4725,
      "Cong": 4726,
      "James": 4727,
      "Mal": 4728,
      "PS": 4729,
      "Women": 4730,
      "cking": 4731,
      "cue": 4732,
      "kitch": 4733,
      "pin": 4734,
      "via": 4735,
      "weigh": 4736,
      "assist": 4737,
      "however": 4738,
      "generally": 4739,
      "factor": 4740,
      "blocks": 4741,
      "sensitive": 4742,
      "evolutionary": 4743,
      "defined": 4744,
      "profession": 4745,
      "mathematical": 4746,
      "discussion": 4747,
      "Four": 4748,
      "Since": 4749,
      "secure": 4750,
      "hael": 4751,
      "goals": 4752,
      "maps": 4753,
      "inevit": 4754,
      "buying": 4755,
      "disaster": 4756,
      "minim": 4757,
      "autonom": 4758,
      "environments": 4759,
      "director": 4760,
      "hyper": 4761,
      "NASA": 4762,
      "witness": 4763,
      "sending": 4764,
      "adopt": 4765,
      "Steve": 4766,
      "techniques": 4767,
      "radiation": 4768,
      "chicken": 4769,
      "restaurant": 4770,
      "Day": 4771,
      "bin": 4772,
      "fied": 4773,
      "lit": 4774,
      "pill": 4775,
      "rs": 4776,
      "itals": 4777,
      "itarian": 4778,
      "icing": 4779,
      "ented": 4780,
      "shark": 4781,
      "phy": 4782,
      "udd": 4783,
      "former": 4784,
      "smile": 4785,
      "breathe": 4786,
      "factors": 4787,
      "appears": 4788,
      "performing": 4789,
      "recorded": 4790,
      "symme": 4791,
      "confidence": 4792,
      "awareness": 4793,
      "bubble": 4794,
      "liquid": 4795,
      "Ap": 4796,
      "jum": 4797,
      "las": 4798,
      "sque": 4799,
      "option": 4800,
      "conver": 4801,
      "notes": 4802,
      "logically": 4803,
      "strict": 4804,
      "invention": 4805,
      "runs": 4806,
      "regions": 4807,
      "spectrum": 4808,
      "unex": 4809,
      "roads": 4810,
      "combination": 4811,
      "soul": 4812,
      "mistake": 4813,
      "pleasure": 4814,
      "organs": 4815,
      "gravity": 4816,
      "destruction": 4817,
      "employees": 4818,
      "Cent": 4819,
      "Dis": 4820,
      "Sm": 4821,
      "bare": 4822,
      "bath": 4823,
      "fan": 4824,
      "refer": 4825,
      "chron": 4826,
      "odd": 4827,
      "myth": 4828,
      "shall": 4829,
      "mented": 4830,
      "YouTube": 4831,
      "lessons": 4832,
      "197": 4833,
      "malaria": 4834,
      "processing": 4835,
      "horse": 4836,
      "employ": 4837,
      "medium": 4838,
      "mirror": 4839,
      "Charles": 4840,
      "newspaper": 4841,
      "Congress": 4842,
      "Bang": 4843,
      "NG": 4844,
      "Rep": 4845,
      "anx": 4846,
      "oman": 4847,
      "omed": 4848,
      "courage": 4849,
      "memories": 4850,
      "keeps": 4851,
      "raising": 4852,
      "Phone": 4853,
      "maker": 4854,
      "temporary": 4855,
      "opinion": 4856,
      "fif": 4857,
      "gate": 4858,
      "kne": 4859,
      "tch": 4860,
      "xim": 4861,
      "severe": 4862,
      "stic": 4863,
      "staff": 4864,
      "otics": 4865,
      "dogs": 4866,
      "ria": 4867,
      "perception": 4868,
      "phan": 4869,
      "thanks": 4870,
      "marine": 4871,
      "visible": 4872,
      "electro": 4873,
      "dropped": 4874,
      "protection": 4875,
      "democratic": 4876,
      "sports": 4877,
      "required": 4878,
      "pollution": 4879,
      "burning": 4880,
      "collaboration": 4881,
      "initi": 4882,
      "tumor": 4883,
      "Pat": 4884,
      "orest": 4885,
      "phas": 4886,
      "tank": 4887,
      "replic": 4888,
      "features": 4889,
      "ternal": 4890,
      "ctic": 4891,
      "centers": 4892,
      "shell": 4893,
      "pregn": 4894,
      "solving": 4895,
      "harvest": 4896,
      "typically": 4897,
      "reached": 4898,
      "mountains": 4899,
      "Michael": 4900,
      "susp": 4901,
      "Russia": 4902,
      "sophisticated": 4903,
      "Yet": 4904,
      "cto": 4905,
      "pul": 4906,
      "scared": 4907,
      "sees": 4908,
      "abled": 4909,
      "estim": 4910,
      "goods": 4911,
      "presence": 4912,
      "simpl": 4913,
      "pulled": 4914,
      "pected": 4915,
      "2008": 4916,
      "chap": 4917,
      "volume": 4918,
      "advent": 4919,
      "traveling": 4920,
      "neighbors": 4921,
      "Talk": 4922,
      "Perhaps": 4923,
      "firm": 4924,
      "false": 4925,
      "paradig": 4926,
      "kitchen": 4927,
      "yo": 4928,
      "za": 4929,
      "insur": 4930,
      "ales": 4931,
      "ingred": 4932,
      "complain": 4933,
      "grant": 4934,
      "cock": 4935,
      "worldwide": 4936,
      "ultimate": 4937,
      "planes": 4938,
      "naturally": 4939,
      "50s": 4940,
      "ibility": 4941,
      "include": 4942,
      "stronger": 4943,
      "meaningful": 4944,
      "privacy": 4945,
      "efficiency": 4946,
      "infected": 4947,
      "Alex": 4948,
      "Bank": 4949,
      "Cal": 4950,
      "La": 4951,
      "Lad": 4952,
      "gut": 4953,
      "kno": 4954,
      "stro": 4955,
      "icated": 4956,
      "rocket": 4957,
      "oph": 4958,
      "eval": 4959,
      "personally": 4960,
      "singing": 4961,
      "2010": 4962,
      "physically": 4963,
      "Something": 4964,
      "amounts": 4965,
      "existing": 4966,
      "literature": 4967,
      "digit": 4968,
      "ancestors": 4969,
      "axis": 4970,
      "apping": 4971,
      "combined": 4972,
      "rupt": 4973,
      "psychology": 4974,
      "participate": 4975,
      "vehicles": 4976,
      "reveal": 4977,
      "toxic": 4978,
      "23": 4979,
      "Che": 4980,
      "hits": 4981,
      "nav": 4982,
      "thin": 4983,
      "style": 4984,
      "usive": 4985,
      "feature": 4986,
      "string": 4987,
      "ignor": 4988,
      "internal": 4989,
      "technological": 4990,
      "relate": 4991,
      "glam": 4992,
      "prime": 4993,
      "Nobody": 4994,
      "topic": 4995,
      "Also": 4996,
      "senses": 4997,
      "Only": 4998,
      "applied": 4999,
      "attacks": 5000,
      "mechanism": 5001,
      "score": 5002,
      "scope": 5003,
      "Project": 5004,
      "hoping": 5005,
      "corporate": 5006,
      "zoom": 5007,
      "accompl": 5008,
      "Amazon": 5009,
      "Adam": 5010,
      "BG": 5011,
      "Bl": 5012,
      "Em": 5013,
      "Hi": 5014,
      "bicy": 5015,
      "fiction": 5016,
      "pit": 5017,
      "tack": 5018,
      "stair": 5019,
      "lio": 5020,
      "doors": 5021,
      "adminis": 5022,
      "unusual": 5023,
      "illegal": 5024,
      "underwater": 5025,
      "vibr": 5026,
      "stock": 5027,
      "studio": 5028,
      "afternoon": 5029,
      "memor": 5030,
      "shame": 5031,
      "foundation": 5032,
      "functions": 5033,
      "increased": 5034,
      "arrass": 5035,
      "records": 5036,
      "fundamentally": 5037,
      "tracking": 5038,
      "occurred": 5039,
      "proteins": 5040,
      "survey": 5041,
      "manufacturing": 5042,
      "algorithms": 5043,
      "eggs": 5044,
      "Pacific": 5045,
      "22": 5046,
      "Law": 5047,
      "ffe": 5048,
      "wine": 5049,
      "theme": 5050,
      "aters": 5051,
      "enced": 5052,
      "iti": 5053,
      "acles": 5054,
      "ours": 5055,
      "upper": 5056,
      "button": 5057,
      "dish": 5058,
      "flower": 5059,
      "monkey": 5060,
      "computing": 5061,
      "clever": 5062,
      "joke": 5063,
      "tests": 5064,
      "tested": 5065,
      "horiz": 5066,
      "sunlight": 5067,
      "oxide": 5068,
      "astronom": 5069,
      "psychological": 5070,
      "activities": 5071,
      "transportation": 5072,
      "dramatic": 5073,
      "options": 5074,
      "garden": 5075,
      "doubt": 5076,
      "Five": 5077,
      "Gh": 5078,
      "Glo": 5079,
      "Jan": 5080,
      "Lat": 5081,
      "Mu": 5082,
      "Rob": 5083,
      "ision": 5084,
      "mosqu": 5085,
      "cave": 5086,
      "coordin": 5087,
      "While": 5088,
      "fake": 5089,
      "gang": 5090,
      "Stan": 5091,
      "breaking": 5092,
      "election": 5093,
      "allowing": 5094,
      "equally": 5095,
      "milk": 5096,
      "falling": 5097,
      "France": 5098,
      "Boston": 5099,
      "hospitals": 5100,
      "mistakes": 5101,
      "conservation": 5102,
      "therapy": 5103,
      "circuit": 5104,
      "embarrass": 5105,
      "marketing": 5106,
      "uries": 5107,
      "renew": 5108,
      "recycl": 5109,
      "ero": 5110,
      "stable": 5111,
      "bell": 5112,
      "proof": 5113,
      "plom": 5114,
      "somewhat": 5115,
      "ums": 5116,
      "nology": 5117,
      "apparent": 5118,
      "empower": 5119,
      "creature": 5120,
      "trig": 5121,
      "musical": 5122,
      "walks": 5123,
      "falls": 5124,
      "feeding": 5125,
      "photographs": 5126,
      "constant": 5127,
      "cooking": 5128,
      "narrative": 5129,
      "quarter": 5130,
      "accurate": 5131,
      "abstract": 5132,
      "empathy": 5133,
      "Sep": 5134,
      "bat": 5135,
      "uel": 5136,
      "toy": 5137,
      "enable": 5138,
      "extr": 5139,
      "tire": 5140,
      "spok": 5141,
      "elly": 5142,
      "generated": 5143,
      "Unfortunately": 5144,
      "suppose": 5145,
      "drives": 5146,
      "statement": 5147,
      "largely": 5148,
      "advice": 5149,
      "collected": 5150,
      "silence": 5151,
      "ridic": 5152,
      "sweet": 5153,
      "laptop": 5154,
      "swimming": 5155,
      "Wikip": 5156,
      "Air": 5157,
      "Get": 5158,
      "Gener": 5159,
      "Par": 5160,
      "cute": 5161,
      "taste": 5162,
      "wars": 5163,
      "whel": 5164,
      "rema": 5165,
      "ounce": 5166,
      "liver": 5167,
      "chose": 5168,
      "absor": 5169,
      "outcome": 5170,
      "gol": 5171,
      "confront": 5172,
      "concrete": 5173,
      "boom": 5174,
      "berg": 5175,
      "percentage": 5176,
      "lessly": 5177,
      "19th": 5178,
      "ballo": 5179,
      "figures": 5180,
      "potentially": 5181,
      "innovative": 5182,
      "contrast": 5183,
      "ollywood": 5184,
      "Christmas": 5185,
      "DA": 5186,
      "MA": 5187,
      "Scot": 5188,
      "border": 5189,
      "lens": 5190,
      "mate": 5191,
      "llo": 5192,
      "church": 5193,
      "conven": 5194,
      "plot": 5195,
      "tired": 5196,
      "overall": 5197,
      "Health": 5198,
      "intense": 5199,
      "desper": 5200,
      "hook": 5201,
      "organism": 5202,
      "films": 5203,
      "pursu": 5204,
      "flowers": 5205,
      "combine": 5206,
      "sustainability": 5207,
      "linked": 5208,
      "birthday": 5209,
      "antibi": 5210,
      "discuss": 5211,
      "Micro": 5212,
      "spiritual": 5213,
      "conclusion": 5214,
      "inspiration": 5215,
      "exploration": 5216,
      "Angeles": 5217,
      "Paris": 5218,
      "bones": 5219,
      "gment": 5220,
      "iPhone": 5221,
      "thus": 5222,
      "thick": 5223,
      "reverse": 5224,
      "ita": 5225,
      "chart": 5226,
      "tie": 5227,
      "overwhel": 5228,
      "clust": 5229,
      "humor": 5230,
      "paralle": 5231,
      "limits": 5232,
      "holds": 5233,
      "tonight": 5234,
      "explained": 5235,
      "conversations": 5236,
      "subjects": 5237,
      "providing": 5238,
      "electronic": 5239,
      "horrible": 5240,
      "explanation": 5241,
      "piano": 5242,
      "Wikipedia": 5243,
      "Mil": 5244,
      "ey": 5245,
      "gers": 5246,
      "pas": 5247,
      "inform": 5248,
      "reject": 5249,
      "repair": 5250,
      "abs": 5251,
      "ula": 5252,
      "herent": 5253,
      "estyle": 5254,
      "ief": 5255,
      "partners": 5256,
      "writer": 5257,
      "shaped": 5258,
      "196": 5259,
      "polar": 5260,
      "boring": 5261,
      "2007": 5262,
      "deploy": 5263,
      "boxes": 5264,
      "stayed": 5265,
      "critic": 5266,
      "laughter": 5267,
      "framework": 5268,
      "surrounded": 5269,
      "Valley": 5270,
      "remains": 5271,
      "Bab": 5272,
      "Sud": 5273,
      "fying": 5274,
      "gence": 5275,
      "loud": 5276,
      "nit": 5277,
      "ood": 5278,
      "wid": 5279,
      "assume": 5280,
      "wet": 5281,
      "arent": 5282,
      "loop": 5283,
      "imple": 5284,
      "constrain": 5285,
      "ulty": 5286,
      "Thom": 5287,
      "unknown": 5288,
      "nose": 5289,
      "embed": 5290,
      "centuries": 5291,
      "rail": 5292,
      "bike": 5293,
      "State": 5294,
      "expon": 5295,
      "origin": 5296,
      "measured": 5297,
      "silk": 5298,
      "aneously": 5299,
      "challenging": 5300,
      "passionate": 5301,
      "German": 5302,
      "authority": 5303,
      "intuitive": 5304,
      "decline": 5305,
      "appreciate": 5306,
      "circumstances": 5307,
      "DH": 5308,
      "Number": 5309,
      "US": 5310,
      "ears": 5311,
      "gam": 5312,
      "mm": 5313,
      "pace": 5314,
      "regre": 5315,
      "iture": 5316,
      "ari": 5317,
      "mel": 5318,
      "nowhere": 5319,
      "shi": 5320,
      "resili": 5321,
      "applications": 5322,
      "mony": 5323,
      "olds": 5324,
      "Before": 5325,
      "curve": 5326,
      "economists": 5327,
      "rising": 5328,
      "joined": 5329,
      "presentation": 5330,
      "faced": 5331,
      "Art": 5332,
      "funding": 5333,
      "advance": 5334,
      "closely": 5335,
      "sensors": 5336,
      "deaths": 5337,
      "fortunate": 5338,
      "functional": 5339,
      "songs": 5340,
      "housing": 5341,
      "collapse": 5342,
      "About": 5343,
      "flew": 5344,
      "diabet": 5345,
      "navig": 5346,
      "Septem": 5347,
      "Ant": 5348,
      "Lu": 5349,
      "PA": 5350,
      "Pol": 5351,
      "athing": 5352,
      "furn": 5353,
      "gro": 5354,
      "iam": 5355,
      "jail": 5356,
      "resolution": 5357,
      "abol": 5358,
      "frank": 5359,
      "plent": 5360,
      "illusion": 5361,
      "aps": 5362,
      "covery": 5363,
      "evening": 5364,
      "serving": 5365,
      "datab": 5366,
      "breed": 5367,
      "publish": 5368,
      "distinct": 5369,
      "ropy": 5370,
      "suffer": 5371,
      "fingers": 5372,
      "laboratory": 5373,
      "samples": 5374,
      "vaccine": 5375,
      "entrepreneurs": 5376,
      "split": 5377,
      "Basically": 5378,
      "Science": 5379,
      "September": 5380,
      "Fort": 5381,
      "Part": 5382,
      "Sil": 5383,
      "du": 5384,
      "pup": 5385,
      "rush": 5386,
      "ert": 5387,
      "ising": 5388,
      "esome": 5389,
      "lean": 5390,
      "whales": 5391,
      "chrom": 5392,
      "root": 5393,
      "god": 5394,
      "pharm": 5395,
      "disappear": 5396,
      "handle": 5397,
      "clothes": 5398,
      "Nothing": 5399,
      "Union": 5400,
      "globe": 5401,
      "papers": 5402,
      "sympto": 5403,
      "footprint": 5404,
      "provided": 5405,
      "transformed": 5406,
      "fixed": 5407,
      "surgeon": 5408,
      "paradigm": 5409,
      "symptoms": 5410,
      "Found": 5411,
      "Museum": 5412,
      "Tit": 5413,
      "Tech": 5414,
      "rors": 5415,
      "yard": 5416,
      "remove": 5417,
      "item": 5418,
      "orient": 5419,
      "whist": 5420,
      "utter": 5421,
      "decre": 5422,
      "tee": 5423,
      "thered": 5424,
      "poet": 5425,
      "application": 5426,
      "astro": 5427,
      "ishment": 5428,
      "preced": 5429,
      "cyber": 5430,
      "prize": 5431,
      "autism": 5432,
      "truck": 5433,
      "dancing": 5434,
      "hotel": 5435,
      "capitalism": 5436,
      "continued": 5437,
      "extent": 5438,
      "gentlemen": 5439,
      "Egypt": 5440,
      "obsessed": 5441,
      "27": 5442,
      "250": 5443,
      "Finally": 5444,
      "GPS": 5445,
      "MS": 5446,
      "Sam": 5447,
      "ckets": 5448,
      "dense": 5449,
      "itors": 5450,
      "oth": 5451,
      "vag": 5452,
      "angry": 5453,
      "asy": 5454,
      "roots": 5455,
      "dozen": 5456,
      "ambit": 5457,
      "anta": 5458,
      "causing": 5459,
      "unlike": 5460,
      "comment": 5461,
      "pled": 5462,
      "poly": 5463,
      "aston": 5464,
      "owned": 5465,
      "wherever": 5466,
      "ptions": 5467,
      "writ": 5468,
      "shake": 5469,
      "correspond": 5470,
      "busy": 5471,
      "ctors": 5472,
      "communications": 5473,
      "villages": 5474,
      "Robert": 5475,
      "standards": 5476,
      "ounced": 5477,
      "instruments": 5478,
      "embrace": 5479,
      "infinite": 5480,
      "grapher": 5481,
      "conventional": 5482,
      "agreed": 5483,
      "Republ": 5484,
      "Global": 5485,
      "mosquito": 5486,
      "Bay": 5487,
      "Gulf": 5488,
      "Haw": 5489,
      "[\"": 5490,
      "dict": 5491,
      "iop": 5492,
      "pitch": 5493,
      "reform": 5494,
      "reference": 5495,
      "stack": 5496,
      "icide": 5497,
      "lims": 5498,
      "neut": 5499,
      "admit": 5500,
      "cere": 5501,
      "determ": 5502,
      "tration": 5503,
      "ateful": 5504,
      "seek": 5505,
      "brow": 5506,
      "mune": 5507,
      "struck": 5508,
      "mush": 5509,
      "identical": 5510,
      "certainty": 5511,
      "Everyone": 5512,
      "behavioral": 5513,
      "anticip": 5514,
      "citizen": 5515,
      "Muslims": 5516,
      "technique": 5517,
      "determine": 5518,
      "BM": 5519,
      "June": 5520,
      "cence": 5521,
      "eries": 5522,
      "army": 5523,
      "sters": 5524,
      "omin": 5525,
      "lymp": 5526,
      "rocks": 5527,
      "plug": 5528,
      "ests": 5529,
      "poorest": 5530,
      "agon": 5531,
      "grat": 5532,
      "poses": 5533,
      "pressing": 5534,
      "colate": 5535,
      "parking": 5536,
      "equation": 5537,
      "robotic": 5538,
      "existed": 5539,
      "grandfather": 5540,
      "pollen": 5541,
      "suggests": 5542,
      "represented": 5543,
      "pushing": 5544,
      "drinking": 5545,
      "clouds": 5546,
      "policies": 5547,
      "26": 5548,
      "Coun": 5549,
      "Easter": 5550,
      "Gold": 5551,
      "Hig": 5552,
      "Mom": 5553,
      "Olymp": 5554,
      "Port": 5555,
      "SP": 5556,
      "Sch": 5557,
      "Spe": 5558,
      "Sah": 5559,
      "bond": 5560,
      "fare": 5561,
      "yn": 5562,
      "ald": 5563,
      "iders": 5564,
      "implications": 5565,
      "ifying": 5566,
      "conce": 5567,
      "comed": 5568,
      "plans": 5569,
      "download": 5570,
      "shoulder": 5571,
      "corn": 5572,
      "angers": 5573,
      "connecting": 5574,
      "plicity": 5575,
      "treating": 5576,
      "filter": 5577,
      "portra": 5578,
      "flood": 5579,
      "floating": 5580,
      "Remember": 5581,
      "architects": 5582,
      "mechanical": 5583,
      "earthqu": 5584,
      "dramatically": 5585,
      "fabric": 5586,
      "puzzle": 5587,
      "younger": 5588,
      "SS": 5589,
      "cers": 5590,
      "fright": 5591,
      "mals": 5592,
      "mitted": 5593,
      "ining": 5594,
      "alt": 5595,
      "icient": 5596,
      "spinal": 5597,
      "obes": 5598,
      "stands": 5599,
      "biom": 5600,
      "transfer": 5601,
      "breathing": 5602,
      "educational": 5603,
      "wondered": 5604,
      "climb": 5605,
      "measuring": 5606,
      "expectations": 5607,
      "teams": 5608,
      "Demo": 5609,
      "reaching": 5610,
      "barri": 5611,
      "Really": 5612,
      "recognition": 5613,
      "telephone": 5614,
      "arguments": 5615,
      "offered": 5616,
      "selection": 5617,
      "mystery": 5618,
      "occasion": 5619,
      "phrase": 5620,
      "phase": 5621,
      "frankly": 5622,
      "CD": 5623,
      "El": 5624,
      "Jer": 5625,
      "Lin": 5626,
      "cin": 5627,
      "density": 5628,
      "oo": 5629,
      "pha": 5630,
      "pour": 5631,
      "inject": 5632,
      "stal": 5633,
      "heim": 5634,
      "whale": 5635,
      "gray": 5636,
      "disorders": 5637,
      "guide": 5638,
      "prepar": 5639,
      "obst": 5640,
      "carried": 5641,
      "colum": 5642,
      "engaging": 5643,
      "corals": 5644,
      "subs": 5645,
      "populations": 5646,
      "2009": 5647,
      "stretch": 5648,
      "classes": 5649,
      "increases": 5650,
      "greenhouse": 5651,
      "directions": 5652,
      "properly": 5653,
      "romantic": 5654,
      "heroes": 5655,
      "prototype": 5656,
      "mammals": 5657,
      "Obama": 5658,
      "automatically": 5659,
      "library": 5660,
      "Sweden": 5661,
      "powers": 5662,
      "unexpected": 5663,
      "Thomas": 5664,
      "Higgs": 5665,
      "ij": 5666,
      "lung": 5667,
      "pound": 5668,
      "rition": 5669,
      "react": 5670,
      "enh": 5671,
      "locked": 5672,
      "neither": 5673,
      "polio": 5674,
      "agend": 5675,
      "tip": 5676,
      "tight": 5677,
      "channel": 5678,
      "distr": 5679,
      "diplom": 5680,
      "grows": 5681,
      "economies": 5682,
      "missed": 5683,
      "custo": 5684,
      "2005": 5685,
      "painful": 5686,
      "windows": 5687,
      "domestic": 5688,
      "interactions": 5689,
      "mathematic": 5690,
      "clinic": 5691,
      "lifestyle": 5692,
      "distributed": 5693,
      "tube": 5694,
      "resistance": 5695,
      "elimin": 5696,
      "Latin": 5697,
      "spoken": 5698,
      "House": 5699,
      "Ox": 5700,
      "Rw": 5701,
      "Tex": 5702,
      "bage": 5703,
      "dign": 5704,
      "mice": 5705,
      "ata": 5706,
      "arrest": 5707,
      "grateful": 5708,
      "worker": 5709,
      "spider": 5710,
      "pher": 5711,
      "overcome": 5712,
      "intention": 5713,
      "monkeys": 5714,
      "instinct": 5715,
      "careful": 5716,
      "drill": 5717,
      "graphics": 5718,
      "asteroid": 5719,
      "dependence": 5720,
      "mainly": 5721,
      "consumers": 5722,
      "smoke": 5723,
      "diagram": 5724,
      "celebrate": 5725,
      "curiosity": 5726,
      "component": 5727,
      "pipe": 5728,
      "Human": 5729,
      "Apple": 5730,
      "horizon": 5731,
      "obesity": 5732,
      "Del": 5733,
      "Narr": 5734,
      "cart": 5735,
      "lun": 5736,
      "entered": 5737,
      "outcomes": 5738,
      "aret": 5739,
      "peer": 5740,
      "immune": 5741,
      "tea": 5742,
      "traged": 5743,
      "brush": 5744,
      "particle": 5745,
      "bott": 5746,
      "organize": 5747,
      "controlling": 5748,
      "shock": 5749,
      "stere": 5750,
      "ferti": 5751,
      "spreading": 5752,
      "savings": 5753,
      "wireless": 5754,
      "scary": 5755,
      "title": 5756,
      "attached": 5757,
      "elephant": 5758,
      "Korea": 5759,
      "toilet": 5760,
      "permanent": 5761,
      "Ghana": 5762,
      "January": 5763,
      "Cha": 5764,
      "Gen": 5765,
      "Give": 5766,
      "Six": 5767,
      "Tor": 5768,
      "Whe": 5769,
      "bally": 5770,
      "dies": 5771,
      "hat": 5772,
      "mim": 5773,
      "tical": 5774,
      "wich": 5775,
      "input": 5776,
      "thent": 5777,
      "theless": 5778,
      "recomm": 5779,
      "andon": 5780,
      "vey": 5781,
      "degrad": 5782,
      "excl": 5783,
      "maxim": 5784,
      "rescue": 5785,
      "illance": 5786,
      "posing": 5787,
      "Star": 5788,
      "hardware": 5789,
      "traveled": 5790,
      "interactive": 5791,
      "slides": 5792,
      "printing": 5793,
      "enemy": 5794,
      "reported": 5795,
      "nutrition": 5796,
      "brothers": 5797,
      "extinct": 5798,
      "penguins": 5799,
      "Eth": 5800,
      "Gir": 5801,
      "Hy": 5802,
      "Nat": 5803,
      "Sou": 5804,
      "borders": 5805,
      "gust": 5806,
      "honey": 5807,
      "tries": 5808,
      "ching": 5809,
      "abuse": 5810,
      "impress": 5811,
      "delic": 5812,
      "units": 5813,
      "proced": 5814,
      "pox": 5815,
      "cooperation": 5816,
      "prices": 5817,
      "putation": 5818,
      "bug": 5819,
      "imagined": 5820,
      "legit": 5821,
      "classic": 5822,
      "recording": 5823,
      "summar": 5824,
      "practices": 5825,
      "concepts": 5826,
      "divided": 5827,
      "receive": 5828,
      "bombs": 5829,
      "suspect": 5830,
      "philosophy": 5831,
      "destroyed": 5832,
      "precisely": 5833,
      "Foundation": 5834,
      "gon": 5835,
      "hill": 5836,
      "lone": 5837,
      "pump": 5838,
      "ester": 5839,
      "lyn": 5840,
      "ota": 5841,
      "rill": 5842,
      "shr": 5843,
      "pocket": 5844,
      "inequality": 5845,
      "bucks": 5846,
      "labe": 5847,
      "ugly": 5848,
      "awesome": 5849,
      "addict": 5850,
      "presented": 5851,
      "accum": 5852,
      "balls": 5853,
      "recognized": 5854,
      "emergency": 5855,
      "constructed": 5856,
      "Congo": 5857,
      "laughing": 5858,
      "tasks": 5859,
      "license": 5860,
      "Islamic": 5861,
      "Space": 5862,
      "latest": 5863,
      "flip": 5864,
      "categor": 5865,
      "academic": 5866,
      "antibiotics": 5867,
      "plenty": 5868,
      "800": 5869,
      "Never": 5870,
      "Revolution": 5871,
      "River": 5872,
      "cend": 5873,
      "pink": 5874,
      "pile": 5875,
      "toler": 5876,
      "behave": 5877,
      "otion": 5878,
      "likes": 5879,
      "forts": 5880,
      "geome": 5881,
      "persu": 5882,
      "White": 5883,
      "guaran": 5884,
      "sheep": 5885,
      "positions": 5886,
      "lecture": 5887,
      "designs": 5888,
      "lovely": 5889,
      "transplant": 5890,
      "gled": 5891,
      "glac": 5892,
      "linear": 5893,
      "Nobel": 5894,
      "friendly": 5895,
      "authent": 5896,
      "productivity": 5897,
      "Sea": 5898,
      "depending": 5899,
      "interacting": 5900,
      "sales": 5901,
      "covering": 5902,
      "session": 5903,
      "surveillance": 5904,
      "exploring": 5905,
      "sculpture": 5906,
      "exhibition": 5907,
      "vessels": 5908,
      "entertainment": 5909,
      "Central": 5910,
      "Microsoft": 5911,
      "Budd": 5912,
      "Eve": 5913,
      "Grand": 5914,
      "Jes": 5915,
      "Mad": 5916,
      "SE": 5917,
      "Ver": 5918,
      "aes": 5919,
      "iP": 5920,
      "ores": 5921,
      "ssing": 5922,
      "vital": 5923,
      "yield": 5924,
      "request": 5925,
      "alien": 5926,
      "wired": 5927,
      "sole": 5928,
      "adjust": 5929,
      "department": 5930,
      "unclear": 5931,
      "excell": 5932,
      "whereas": 5933,
      "thrown": 5934,
      "fault": 5935,
      "colony": 5936,
      "finance": 5937,
      "plays": 5938,
      "personality": 5939,
      "cheaper": 5940,
      "translate": 5941,
      "dioxide": 5942,
      "animation": 5943,
      "Island": 5944,
      "surely": 5945,
      "sticks": 5946,
      "genesis": 5947,
      "hunger": 5948,
      "engagement": 5949,
      "fascinated": 5950,
      "official": 5951,
      "repeat": 5952,
      "Haiti": 5953,
      "aspects": 5954,
      "candid": 5955,
      "commitment": 5956,
      "sacri": 5957,
      "execut": 5958,
      "fifth": 5959,
      "diabetes": 5960,
      "Narrator": 5961,
      "95": 5962,
      "Bush": 5963,
      "High": 5964,
      "Jim": 5965,
      "Up": 5966,
      "Video": 5967,
      "gig": 5968,
      "hatt": 5969,
      "recovery": 5970,
      "escape": 5971,
      "lian": 5972,
      "modif": 5973,
      "capt": 5974,
      "shri": 5975,
      "udes": 5976,
      "disorder": 5977,
      "ferences": 5978,
      "backwards": 5979,
      "chocolate": 5980,
      "committed": 5981,
      "hili": 5982,
      "flash": 5983,
      "lighting": 5984,
      "produces": 5985,
      "muscles": 5986,
      "signed": 5987,
      "hearts": 5988,
      "elev": 5989,
      "involves": 5990,
      "arency": 5991,
      "concern": 5992,
      "Manhatt": 5993,
      "habitat": 5994,
      "paintings": 5995,
      "manufacture": 5996,
      "Tell": 5997,
      "incentives": 5998,
      "rhythm": 5999,
      "parallel": 6000,
      "embedded": 6001,
      "furniture": 6002,
      "Ethiop": 6003,
      "Manhattan": 6004,
      "Jack": 6005,
      "Mac": 6006,
      "cash": 6007,
      "ias": 6008,
      "iety": 6009,
      "kilo": 6010,
      "ule": 6011,
      "iny": 6012,
      "erad": 6013,
      "tops": 6014,
      "omes": 6015,
      "chest": 6016,
      "mold": 6017,
      "ceiling": 6018,
      "estimate": 6019,
      "aggress": 6020,
      "cosmo": 6021,
      "brown": 6022,
      "phil": 6023,
      "Arch": 6024,
      "funded": 6025,
      "drawn": 6026,
      "accessible": 6027,
      "virtually": 6028,
      "colleague": 6029,
      "narrow": 6030,
      "aspir": 6031,
      "magnetic": 6032,
      "customers": 6033,
      "Atlantic": 6034,
      "achieved": 6035,
      "insurance": 6036,
      "evalu": 6037,
      "balloon": 6038,
      "Democr": 6039,
      "agenda": 6040,
      "\"]": 6041,
      "28": 6042,
      "700": 6043,
      "Hu": 6044,
      "dive": 6045,
      "rab": 6046,
      "anony": 6047,
      "orches": 6048,
      "leap": 6049,
      "ache": 6050,
      "abandon": 6051,
      "nels": 6052,
      "opposed": 6053,
      "exposed": 6054,
      "proportion": 6055,
      "umin": 6056,
      "sage": 6057,
      "resto": 6058,
      "illustr": 6059,
      "wanting": 6060,
      "disappeared": 6061,
      "strand": 6062,
      "genius": 6063,
      "limb": 6064,
      "otech": 6065,
      "Africans": 6066,
      "probability": 6067,
      "controver": 6068,
      "International": 6069,
      "distant": 6070,
      "purch": 6071,
      "Christian": 6072,
      "touched": 6073,
      "divide": 6074,
      "accepted": 6075,
      "electronics": 6076,
      "criminal": 6077,
      "frozen": 6078,
      "shooting": 6079,
      "inspiring": 6080,
      "pyram": 6081,
      "Palest": 6082,
      "ignore": 6083,
      "elder": 6084,
      "shadow": 6085,
      "bicycle": 6086,
      "Stanford": 6087,
      "Texas": 6088,
      "authentic": 6089,
      "32": 6090,
      "Fre": 6091,
      "RS": 6092,
      "Sor": 6093,
      "Ten": 6094,
      "bia": 6095,
      "dust": 6096,
      "eed": 6097,
      "ka": 6098,
      "rome": 6099,
      "rus": 6100,
      "zens": 6101,
      "inf": 6102,
      "bered": 6103,
      "acular": 6104,
      "otes": 6105,
      "ida": 6106,
      "tery": 6107,
      "del": 6108,
      "fruit": 6109,
      "shine": 6110,
      "agger": 6111,
      "reduction": 6112,
      "Inte": 6113,
      "chosen": 6114,
      "efforts": 6115,
      "relations": 6116,
      "diverse": 6117,
      "Stud": 6118,
      "hardly": 6119,
      "adding": 6120,
      "views": 6121,
      "northern": 6122,
      "champ": 6123,
      "biologists": 6124,
      "experiencing": 6125,
      "amongst": 6126,
      "conflicts": 6127,
      "vertical": 6128,
      "sandwich": 6129,
      "hungry": 6130,
      "optimistic": 6131,
      "contribute": 6132,
      "dynamics": 6133,
      "psychiat": 6134,
      "scratch": 6135,
      "historical": 6136,
      "consistent": 6137,
      "privilege": 6138,
      "dignity": 6139,
      "85": 6140,
      "Ice": 6141,
      "Lar": 6142,
      "MRI": 6143,
      "Next": 6144,
      "Que": 6145,
      "Ug": 6146,
      "rating": 6147,
      "voc": 6148,
      "removed": 6149,
      "aside": 6150,
      "omo": 6151,
      "abund": 6152,
      "unbeliev": 6153,
      "iled": 6154,
      "essence": 6155,
      "poster": 6156,
      "tied": 6157,
      "disgust": 6158,
      "bless": 6159,
      "sheet": 6160,
      "prem": 6161,
      "invite": 6162,
      "paras": 6163,
      "searching": 6164,
      "Indeed": 6165,
      "incident": 6166,
      "legis": 6167,
      "legacy": 6168,
      "respons": 6169,
      "passing": 6170,
      "scales": 6171,
      "devast": 6172,
      "fluid": 6173,
      "domain": 6174,
      "football": 6175,
      "neuron": 6176,
      "darkness": 6177,
      "links": 6178,
      "apartment": 6179,
      "judge": 6180,
      "ladies": 6181,
      "neighborhoods": 6182,
      "motivation": 6183,
      "captured": 6184,
      "volunteers": 6185,
      "advertising": 6186,
      "skelet": 6187,
      "barely": 6188,
      "29": 6189,
      "Bon": 6190,
      "Black": 6191,
      "Nations": 6192,
      "Oce": 6193,
      "Ty": 6194,
      "Woman": 6195,
      "bars": 6196,
      "east": 6197,
      "mates": 6198,
      "pse": 6199,
      "uri": 6200,
      "wound": 6201,
      "retire": 6202,
      "stations": 6203,
      "beer": 6204,
      "lig": 6205,
      "chief": 6206,
      "Sovi": 6207,
      "odes": 6208,
      "olar": 6209,
      "shirt": 6210,
      "asks": 6211,
      "simplicity": 6212,
      "archy": 6213,
      "headed": 6214,
      "expans": 6215,
      "governance": 6216,
      "patent": 6217,
      "educated": 6218,
      "charity": 6219,
      "continues": 6220,
      "meetings": 6221,
      "collecting": 6222,
      "microscope": 6223,
      "layers": 6224,
      "universities": 6225,
      "dedicated": 6226,
      "mammo": 6227,
      "journalist": 6228,
      "route": 6229,
      "washing": 6230,
      "strategies": 6231,
      "dolphins": 6232,
      "telescope": 6233,
      "symmetry": 6234,
      "earthquake": 6235,
      "Mor": 6236,
      "Mary": 6237,
      "Pho": 6238,
      "Res": 6239,
      "Sing": 6240,
      "Sup": 6241,
      "Vir": 6242,
      "bby": 6243,
      "dirty": 6244,
      "fiber": 6245,
      "sket": 6246,
      "infl": 6247,
      "theories": 6248,
      "encounter": 6249,
      "ingu": 6250,
      "quad": 6251,
      "poison": 6252,
      "agic": 6253,
      "ressing": 6254,
      "suicide": 6255,
      "happier": 6256,
      "talent": 6257,
      "crying": 6258,
      "prescri": 6259,
      "hire": 6260,
      "hier": 6261,
      "letting": 6262,
      "court": 6263,
      "lax": 6264,
      "laid": 6265,
      "rence": 6266,
      "instant": 6267,
      "earn": 6268,
      "avor": 6269,
      "controls": 6270,
      "globally": 6271,
      "elsewhere": 6272,
      "equality": 6273,
      "evolve": 6274,
      "drove": 6275,
      "audi": 6276,
      "speaker": 6277,
      "silent": 6278,
      "mechanics": 6279,
      "provides": 6280,
      "synthetic": 6281,
      "smoking": 6282,
      "fuels": 6283,
      "Should": 6284,
      "algorithm": 6285,
      "lux": 6286,
      "seeds": 6287,
      "sculpt": 6288,
      "transparent": 6289,
      "pilot": 6290,
      "BC": 6291,
      "Hollywood": 6292,
      "PM": 6293,
      "Time": 6294,
      "Viet": 6295,
      "cats": 6296,
      "nti": 6297,
      "phere": 6298,
      "rice": 6299,
      "inch": 6300,
      "icop": 6301,
      "oty": 6302,
      "lium": 6303,
      "idi": 6304,
      "usions": 6305,
      "iment": 6306,
      "defe": 6307,
      "genoc": 6308,
      "underground": 6309,
      "finds": 6310,
      "oldest": 6311,
      "wenty": 6312,
      "attribut": 6313,
      "visited": 6314,
      "azz": 6315,
      "athlet": 6316,
      "skull": 6317,
      "identified": 6318,
      "capita": 6319,
      "innovations": 6320,
      "Boy": 6321,
      "imeter": 6322,
      "affordable": 6323,
      "neuroscience": 6324,
      "quarters": 6325,
      "weapon": 6326,
      "Voice": 6327,
      "apparently": 6328,
      "33": 6329,
      "Bob": 6330,
      "Pan": 6331,
      "dys": 6332,
      "iel": 6333,
      "mi": 6334,
      "pand": 6335,
      "ws": 6336,
      "rek": 6337,
      "enger": 6338,
      "ingly": 6339,
      "orange": 6340,
      "youth": 6341,
      "lored": 6342,
      "tears": 6343,
      "uration": 6344,
      "agency": 6345,
      "tians": 6346,
      "herself": 6347,
      "realm": 6348,
      "stops": 6349,
      "cert": 6350,
      "nets": 6351,
      "paraly": 6352,
      "borrow": 6353,
      "2004": 6354,
      "30s": 6355,
      "facial": 6356,
      "plicit": 6357,
      "advoc": 6358,
      "predictable": 6359,
      "located": 6360,
      "mechanisms": 6361,
      "constit": 6362,
      "burst": 6363,
      "defense": 6364,
      "contains": 6365,
      "integrated": 6366,
      "crops": 6367,
      "minister": 6368,
      "beliefs": 6369,
      "campus": 6370,
      "boundaries": 6371,
      "methods": 6372,
      "heaven": 6373,
      "determined": 6374,
      "Design": 6375,
      "laser": 6376,
      "ingredients": 6377,
      "Blue": 6378,
      "Uganda": 6379,
      "Vietnam": 6380,
      "120": 6381,
      "Back": 6382,
      "Hal": 6383,
      "Jef": 6384,
      "LA": 6385,
      "Sur": 6386,
      "Turn": 6387,
      "Ze": 6388,
      "eu": 6389,
      "gi": 6390,
      "picking": 6391,
      "zes": 6392,
      "inations": 6393,
      "resh": 6394,
      "reck": 6395,
      "asive": 6396,
      "seats": 6397,
      "stages": 6398,
      "het": 6399,
      "opy": 6400,
      "delive": 6401,
      "consume": 6402,
      "intended": 6403,
      "stores": 6404,
      "minor": 6405,
      "aircraft": 6406,
      "speakers": 6407,
      "breakthrough": 6408,
      "ethical": 6409,
      "dimension": 6410,
      "banks": 6411,
      "crucial": 6412,
      "schiz": 6413,
      "Jewish": 6414,
      "dominant": 6415,
      "William": 6416,
      "frequency": 6417,
      "vacu": 6418,
      "reefs": 6419,
      "anxiety": 6420,
      "pregnant": 6421,
      "granted": 6422,
      "General": 6423,
      "tragedy": 6424,
      "shrimp": 6425,
      "delivered": 6426,
      "Nature": 6427,
      "Was": 6428,
      "fusion": 6429,
      "gory": 6430,
      "informed": 6431,
      "hai": 6432,
      "meal": 6433,
      "utical": 6434,
      "neat": 6435,
      "amed": 6436,
      "external": 6437,
      "yours": 6438,
      "spots": 6439,
      "reduced": 6440,
      "tage": 6441,
      "Hello": 6442,
      "intent": 6443,
      "viously": 6444,
      "surfaces": 6445,
      "bias": 6446,
      "afterwards": 6447,
      "pointing": 6448,
      "195": 6449,
      "glad": 6450,
      "supp": 6451,
      "airport": 6452,
      "metabol": 6453,
      "musicians": 6454,
      "accidents": 6455,
      "barrel": 6456,
      "announced": 6457,
      "calculate": 6458,
      "nutri": 6459,
      "Prof": 6460,
      "frog": 6461,
      "symbols": 6462,
      "trends": 6463,
      "storm": 6464,
      "Egyp": 6465,
      "transparency": 6466,
      "isolated": 6467,
      "regret": 6468,
      "database": 6469,
      "Bible": 6470,
      "Long": 6471,
      "eleg": 6472,
      "jelly": 6473,
      "ker": 6474,
      "pion": 6475,
      "reputation": 6476,
      "relax": 6477,
      "toys": 6478,
      "hemis": 6479,
      "neural": 6480,
      "depressed": 6481,
      "consequence": 6482,
      "Italy": 6483,
      "tort": 6484,
      "aceutical": 6485,
      "printer": 6486,
      "thane": 6487,
      "ensus": 6488,
      "clar": 6489,
      "manif": 6490,
      "comparis": 6491,
      "mining": 6492,
      "viral": 6493,
      "capability": 6494,
      "passwords": 6495,
      "figuring": 6496,
      "Peter": 6497,
      "spectacular": 6498,
      "emphas": 6499,
      "confident": 6500,
      "terrorists": 6501,
      "improvement": 6502,
      "inspire": 6503,
      "demonstrate": 6504,
      "initial": 6505,
      "tuna": 6506,
      "physicist": 6507,
      "Children": 6508,
      "injury": 6509,
      "Martin": 6510,
      "writers": 6511,
      "Whether": 6512,
      "Ocean": 6513,
      "Fin": 6514,
      "Mand": 6515,
      "Wall": 6516,
      "iac": 6517,
      "trop": 6518,
      "thumb": 6519,
      "anes": 6520,
      "recru": 6521,
      "tock": 6522,
      "tocin": 6523,
      "orous": 6524,
      "ario": 6525,
      "veter": 6526,
      "kee": 6527,
      "gee": 6528,
      "dozens": 6529,
      "delight": 6530,
      "uncomfortable": 6531,
      "assess": 6532,
      "strangers": 6533,
      "blame": 6534,
      "helicop": 6535,
      "pulling": 6536,
      "founded": 6537,
      "glades": 6538,
      "farmer": 6539,
      "settle": 6540,
      "consult": 6541,
      "measures": 6542,
      "circles": 6543,
      "winning": 6544,
      "boards": 6545,
      "worthy": 6546,
      "richer": 6547,
      "suggesting": 6548,
      "smooth": 6549,
      "folding": 6550,
      "chairs": 6551,
      "hanging": 6552,
      "prosper": 6553,
      "Flor": 6554,
      "chimpanzees": 6555,
      "Smith": 6556,
      "ridiculous": 6557,
      "heimer": 6558,
      "Oxford": 6559,
      "lungs": 6560,
      "BF": 6561,
      "Bur": 6562,
      "Cy": 6563,
      "Cap": 6564,
      "Mark": 6565,
      "None": 6566,
      "Rio": 6567,
      "Wa": 6568,
      "naked": 6569,
      "odo": 6570,
      "tast": 6571,
      "ua": 6572,
      "uous": 6573,
      "vity": 6574,
      "ende": 6575,
      "edges": 6576,
      "acing": 6577,
      "cher": 6578,
      "robust": 6579,
      "unlikely": 6580,
      "apple": 6581,
      "coach": 6582,
      "cohol": 6583,
      "answered": 6584,
      "emen": 6585,
      "disap": 6586,
      "aks": 6587,
      "elections": 6588,
      "photographer": 6589,
      "painted": 6590,
      "treatments": 6591,
      "depth": 6592,
      "breaks": 6593,
      "grandchildren": 6594,
      "predictions": 6595,
      "origami": 6596,
      "adoles": 6597,
      "characteristics": 6598,
      "participants": 6599,
      "southern": 6600,
      "debt": 6601,
      "Arabic": 6602,
      "conclude": 6603,
      "criminals": 6604,
      "agricultural": 6605,
      "Obviously": 6606,
      "category": 6607,
      "knee": 6608,
      "chapter": 6609,
      "golf": 6610,
      "Antar": 6611,
      "Titan": 6612,
      "astonishing": 6613,
      "district": 6614,
      "legisl": 6615,
      "Bal": 6616,
      "Rese": 6617,
      "cab": 6618,
      "mud": 6619,
      "ogue": 6620,
      "punch": 6621,
      "tone": 6622,
      "wand": 6623,
      "inherent": 6624,
      "anz": 6625,
      "arrange": 6626,
      "static": 6627,
      "ropo": 6628,
      "rolling": 6629,
      "soap": 6630,
      "dear": 6631,
      "commod": 6632,
      "shots": 6633,
      "boss": 6634,
      "parties": 6635,
      "forming": 6636,
      "intervention": 6637,
      "inven": 6638,
      "handed": 6639,
      "curren": 6640,
      "tribes": 6641,
      "tooth": 6642,
      "diver": 6643,
      "ski": 6644,
      "awk": 6645,
      "aws": 6646,
      "exped": 6647,
      "angles": 6648,
      "traje": 6649,
      "2006": 6650,
      "mingly": 6651,
      "protecting": 6652,
      "photography": 6653,
      "emerge": 6654,
      "filling": 6655,
      "includes": 6656,
      "pushed": 6657,
      "reports": 6658,
      "ecosystems": 6659,
      "variation": 6660,
      "separated": 6661,
      "tricks": 6662,
      "welcome": 6663,
      "attractive": 6664,
      "reminded": 6665,
      "qualities": 6666,
      "briefly": 6667,
      "Prize": 6668,
      "revenue": 6669,
      "dictionary": 6670,
      "autonomous": 6671,
      "physi": 6672,
      "ophren": 6673,
      "ignorance": 6674,
      "Rwanda": 6675,
      "Soviet": 6676,
      "Virgin": 6677,
      "Research": 6678,
      "trajec": 6679,
      "Gand": 6680,
      "Ko": 6681,
      "Make": 6682,
      "Sal": 6683,
      "jac": 6684,
      "lon": 6685,
      "thresh": 6686,
      "inches": 6687,
      "returned": 6688,
      "implant": 6689,
      "amine": 6690,
      "Things": 6691,
      "Third": 6692,
      "shed": 6693,
      "agencies": 6694,
      "reson": 6695,
      "apor": 6696,
      "club": 6697,
      "bial": 6698,
      "smallpox": 6699,
      "farming": 6700,
      "viewer": 6701,
      "2001": 6702,
      "globalization": 6703,
      "thirds": 6704,
      "experimental": 6705,
      "originally": 6706,
      "impacts": 6707,
      "confir": 6708,
      "diving": 6709,
      "nucle": 6710,
      "Pole": 6711,
      "glasses": 6712,
      "teenagers": 6713,
      "crossing": 6714,
      "rarely": 6715,
      "bags": 6716,
      "repeated": 6717,
      "federal": 6718,
      "sacred": 6719,
      "flexible": 6720,
      "Ethiopia": 6721,
      "schizophren": 6722,
      "Florida": 6723,
      "Put": 6724,
      "Sa": 6725,
      "Sw": 6726,
      "aj": 6727,
      "mone": 6728,
      "sink": 6729,
      "skept": 6730,
      "remem": 6731,
      "erg": 6732,
      "ena": 6733,
      "alcohol": 6734,
      "armed": 6735,
      "beet": 6736,
      "hab": 6737,
      "utch": 6738,
      "lihood": 6739,
      "gos": 6740,
      "opens": 6741,
      "essor": 6742,
      "brave": 6743,
      "needle": 6744,
      "choo": 6745,
      "marter": 6746,
      "marks": 6747,
      "lake": 6748,
      "biod": 6749,
      "basket": 6750,
      "landed": 6751,
      "earning": 6752,
      "subtle": 6753,
      "drivers": 6754,
      "Isn": 6755,
      "facility": 6756,
      "trucks": 6757,
      "distur": 6758,
      "sensory": 6759,
      "sentences": 6760,
      "Department": 6761,
      "ethnic": 6762,
      "cliff": 6763,
      "discoveries": 6764,
      "Carol": 6765,
      "miracle": 6766,
      "competitive": 6767,
      "throwing": 6768,
      "copyright": 6769,
      "expanding": 6770,
      "assumptions": 6771,
      "diagnosed": 6772,
      "resistant": 6773,
      "sharp": 6774,
      "primarily": 6775,
      "frontal": 6776,
      "Eastern": 6777,
      "Jeff": 6778,
      "vacuum": 6779,
      "47": 6780,
      "MT": 6781,
      "Out": 6782,
      "Octo": 6783,
      "bass": 6784,
      "fought": 6785,
      "mun": 6786,
      "zheimer": 6787,
      "threw": 6788,
      "inhabit": 6789,
      "rey": 6790,
      "ardo": 6791,
      "lethal": 6792,
      "acid": 6793,
      "forgotten": 6794,
      "rogen": 6795,
      "outs": 6796,
      "pel": 6797,
      "usal": 6798,
      "femin": 6799,
      "Through": 6800,
      "artistic": 6801,
      "articles": 6802,
      "aint": 6803,
      "grave": 6804,
      "iveness": 6805,
      "unde": 6806,
      "guard": 6807,
      "underlying": 6808,
      "herit": 6809,
      "caring": 6810,
      "simult": 6811,
      "atts": 6812,
      "begun": 6813,
      "capes": 6814,
      "magical": 6815,
      "Gore": 6816,
      "chaos": 6817,
      "Move": 6818,
      "programming": 6819,
      "Alzheimer": 6820,
      "predicted": 6821,
      "salt": 6822,
      "clients": 6823,
      "persist": 6824,
      "collaborative": 6825,
      "oxytocin": 6826,
      "daughters": 6827,
      "focusing": 6828,
      "hackers": 6829,
      "nurses": 6830,
      "recommend": 6831,
      "pyramid": 6832,
      "Sorry": 6833,
      "genocide": 6834,
      "October": 6835,
      "BI": 6836,
      "Sure": 6837,
      "aqu": 6838,
      "dent": 6839,
      "hitting": 6840,
      "sits": 6841,
      "tick": 6842,
      "hey": 6843,
      "advis": 6844,
      "opard": 6845,
      "caps": 6846,
      "uncertainty": 6847,
      "fraction": 6848,
      "perm": 6849,
      "pla": 6850,
      "ilit": 6851,
      "shit": 6852,
      "nois": 6853,
      "fool": 6854,
      "izar": 6855,
      "flour": 6856,
      "Beij": 6857,
      "1990s": 6858,
      "fortune": 6859,
      "volcan": 6860,
      "objective": 6861,
      "array": 6862,
      "flows": 6863,
      "consciously": 6864,
      "targets": 6865,
      "shopping": 6866,
      "translated": 6867,
      "surprisingly": 6868,
      "bubbles": 6869,
      "satellites": 6870,
      "shelter": 6871,
      "extended": 6872,
      "Saturn": 6873,
      "inevitable": 6874,
      "adventure": 6875,
      "philanth": 6876,
      "elderly": 6877,
      "48": 6878,
      "Bet": 6879,
      "Mill": 6880,
      "Squ": 6881,
      "gases": 6882,
      "hut": 6883,
      "patch": 6884,
      "rings": 6885,
      "tent": 6886,
      "refri": 6887,
      "leaf": 6888,
      "stab": 6889,
      "ication": 6890,
      "whis": 6891,
      "output": 6892,
      "rix": 6893,
      "ulum": 6894,
      "ultra": 6895,
      "permission": 6896,
      "proposed": 6897,
      "Ital": 6898,
      "ups": 6899,
      "suffe": 6900,
      "partly": 6901,
      "ensure": 6902,
      "differenti": 6903,
      "selfish": 6904,
      "attitude": 6905,
      "1980s": 6906,
      "1970s": 6907,
      "imagery": 6908,
      "tribe": 6909,
      "2003": 6910,
      "killer": 6911,
      "shore": 6912,
      "difficulty": 6913,
      "supported": 6914,
      "involve": 6915,
      "promote": 6916,
      "emerged": 6917,
      "panels": 6918,
      "suggested": 6919,
      "participation": 6920,
      "scores": 6921,
      "shops": 6922,
      "documents": 6923,
      "atomic": 6924,
      "Russian": 6925,
      "analyze": 6926,
      "assembly": 6927,
      "Super": 6928,
      "primitive": 6929,
      "CEO": 6930,
      "dialogue": 6931,
      "observation": 6932,
      "immense": 6933,
      "stairs": 6934,
      "pursue": 6935,
      "resilience": 6936,
      "pharmaceutical": 6937,
      "gonna": 6938,
      "expansion": 6939,
      "refriger": 6940,
      "suffered": 6941,
      "Gl": 6942,
      "Phili": 6943,
      "Span": 6944,
      "ais": 6945,
      "jet": 6946,
      "smarter": 6947,
      "tune": 6948,
      "wings": 6949,
      "intr": 6950,
      "asha": 6951,
      "leverage": 6952,
      "merely": 6953,
      "methane": 6954,
      "idge": 6955,
      "soever": 6956,
      "opath": 6957,
      "urge": 6958,
      "whatsoever": 6959,
      "ureau": 6960,
      "gras": 6961,
      "etro": 6962,
      "elite": 6963,
      "buried": 6964,
      "crush": 6965,
      "posal": 6966,
      "conduc": 6967,
      "helpful": 6968,
      "warning": 6969,
      "regime": 6970,
      "joint": 6971,
      "Somebody": 6972,
      "operations": 6973,
      "audio": 6974,
      "excite": 6975,
      "radically": 6976,
      "successfully": 6977,
      "shocked": 6978,
      "industries": 6979,
      "sensor": 6980,
      "explaining": 6981,
      "sisters": 6982,
      "silly": 6983,
      "representation": 6984,
      "sleeping": 6985,
      "deliber": 6986,
      "liberal": 6987,
      "mysterious": 6988,
      "demonstration": 6989,
      "slavery": 6990,
      "perceive": 6991,
      "instructions": 6992,
      "stroke": 6993,
      "exponential": 6994,
      "Jesus": 6995,
      "unbelievable": 6996,
      "Ban": 6997,
      "Gr": 6998,
      "Gates": 6999,
      "Mer": 7000,
      "Sir": 7001,
      "Sund": 7002,
      "duck": 7003,
      "fits": 7004,
      "ogy": 7005,
      "inves": 7006,
      "inson": 7007,
      "theore": 7008,
      "restrict": 7009,
      "oran": 7010,
      "leep": 7011,
      "seal": 7012,
      "heal": 7013,
      "bears": 7014,
      "mood": 7015,
      "plank": 7016,
      "agent": 7017,
      "spill": 7018,
      "closing": 7019,
      "openness": 7020,
      "pretend": 7021,
      "elected": 7022,
      "interestingly": 7023,
      "phosp": 7024,
      "distingu": 7025,
      "Organ": 7026,
      "engineered": 7027,
      "keyboard": 7028,
      "expectancy": 7029,
      "failing": 7030,
      "approaches": 7031,
      "photographed": 7032,
      "nife": 7033,
      "printed": 7034,
      "confused": 7035,
      "Within": 7036,
      "Without": 7037,
      "soldier": 7038,
      "exception": 7039,
      "terrorist": 7040,
      "immediate": 7041,
      "baseball": 7042,
      "struggling": 7043,
      "wheelchair": 7044,
      "mixed": 7045,
      "routine": 7046,
      "additional": 7047,
      "fabulous": 7048,
      "fragile": 7049,
      "colonies": 7050,
      "elephants": 7051,
      "gathering": 7052,
      "shifting": 7053,
      "Brook": 7054,
      "adopted": 7055,
      "squee": 7056,
      "pione": 7057,
      "choosing": 7058,
      "biodiversity": 7059,
      "Den": 7060,
      "IM": 7061,
      "KB": 7062,
      "Pl": 7063,
      "Sar": 7064,
      "Ti": 7065,
      "Ven": 7066,
      "apers": 7067,
      "bizar": 7068,
      "fires": 7069,
      "han": 7070,
      "ji": 7071,
      "ki": 7072,
      "rage": 7073,
      "twe": 7074,
      "tong": 7075,
      "tori": 7076,
      "encing": 7077,
      "stun": 7078,
      "entering": 7079,
      "liament": 7080,
      "peop": 7081,
      "neck": 7082,
      "ams": 7083,
      "trash": 7084,
      "cake": 7085,
      "umes": 7086,
      "pole": 7087,
      "ague": 7088,
      "span": 7089,
      "spray": 7090,
      "bruary": 7091,
      "disagree": 7092,
      "stranger": 7093,
      "craw": 7094,
      "mines": 7095,
      "curric": 7096,
      "imaging": 7097,
      "completed": 7098,
      "counting": 7099,
      "cycles": 7100,
      "glu": 7101,
      "sett": 7102,
      "profits": 7103,
      "profile": 7104,
      "iban": 7105,
      "Arctic": 7106,
      "climbing": 7107,
      "invested": 7108,
      "Derek": 7109,
      "Love": 7110,
      "bene": 7111,
      "description": 7112,
      "genetically": 7113,
      "arrive": 7114,
      "translation": 7115,
      "physician": 7116,
      "February": 7117,
      "Cambridge": 7118,
      "egg": 7119,
      "dolphin": 7120,
      "Greek": 7121,
      "refugees": 7122,
      "lawyer": 7123,
      "lawyers": 7124,
      "omeday": 7125,
      "tackle": 7126,
      "convenient": 7127,
      "Girl": 7128,
      "remembered": 7129,
      "peoples": 7130,
      "Aug": 7131,
      "BA": 7132,
      "Fif": 7133,
      "Hel": 7134,
      "Im": 7135,
      "List": 7136,
      "LED": 7137,
      "Mother": 7138,
      "Power": 7139,
      "Str": 7140,
      "cig": 7141,
      "cable": 7142,
      "rats": 7143,
      "ubi": 7144,
      "wider": 7145,
      "waters": 7146,
      "rebuild": 7147,
      "ati": 7148,
      "enables": 7149,
      "eda": 7150,
      "neo": 7151,
      "trou": 7152,
      "upset": 7153,
      "seeking": 7154,
      "cosm": 7155,
      "bored": 7156,
      "intri": 7157,
      "cheese": 7158,
      "Indust": 7159,
      "capabilities": 7160,
      "millen": 7161,
      "reliable": 7162,
      "Bron": 7163,
      "investing": 7164,
      "microbial": 7165,
      "copes": 7166,
      "improved": 7167,
      "Norway": 7168,
      "strongly": 7169,
      "surviv": 7170,
      "fastest": 7171,
      "architectural": 7172,
      "analog": 7173,
      "affects": 7174,
      "adox": 7175,
      "pairs": 7176,
      "infection": 7177,
      "ville": 7178,
      "optimism": 7179,
      "compelling": 7180,
      "assumption": 7181,
      "shelf": 7182,
      "intuition": 7183,
      "anthropo": 7184,
      "hypothesis": 7185,
      "refugee": 7186,
      "professionals": 7187,
      "replicate": 7188,
      "Scott": 7189,
      "skeleton": 7190,
      "Professor": 7191,
      "bizarre": 7192,
      "beneath": 7193,
      "42": 7194,
      "Ba": 7195,
      "Lou": 7196,
      "PC": 7197,
      "Ros": 7198,
      "bang": 7199,
      "cous": 7200,
      "jan": 7201,
      "knife": 7202,
      "lamp": 7203,
      "nurt": 7204,
      "oven": 7205,
      "ographic": 7206,
      "uity": 7207,
      "thet": 7208,
      "errors": 7209,
      "enthus": 7210,
      "stake": 7211,
      "oms": 7212,
      "loan": 7213,
      "iring": 7214,
      "rivers": 7215,
      "cember": 7216,
      "convert": 7217,
      "pling": 7218,
      "aggre": 7219,
      "spark": 7220,
      "suck": 7221,
      "preh": 7222,
      "marry": 7223,
      "simulation": 7224,
      "bian": 7225,
      "attend": 7226,
      "clos": 7227,
      "insist": 7228,
      "nerve": 7229,
      "homeless": 7230,
      "organizing": 7231,
      "morality": 7232,
      "Islands": 7233,
      "charges": 7234,
      "musician": 7235,
      "expecting": 7236,
      "December": 7237,
      "gradually": 7238,
      "besides": 7239,
      "Leon": 7240,
      "damn": 7241,
      "sufficient": 7242,
      "threats": 7243,
      "Joe": 7244,
      "senior": 7245,
      "pleasant": 7246,
      "garage": 7247,
      "cartoons": 7248,
      "tumors": 7249,
      "golden": 7250,
      "institutional": 7251,
      "extinction": 7252,
      "nurse": 7253,
      "magnitude": 7254,
      "scenario": 7255,
      "Turkey": 7256,
      "discipline": 7257,
      "restore": 7258,
      "paralyzed": 7259,
      "hemisphere": 7260,
      "manifest": 7261,
      "threshold": 7262,
      "Gover": 7263,
      "Off": 7264,
      "Spain": 7265,
      "Und": 7266,
      "bye": 7267,
      "ological": 7268,
      "pir": 7269,
      "sive": 7270,
      "recon": 7271,
      "enabled": 7272,
      "stit": 7273,
      "gods": 7274,
      "adays": 7275,
      "unable": 7276,
      "fract": 7277,
      "artic": 7278,
      "tips": 7279,
      "istically": 7280,
      "brut": 7281,
      "woke": 7282,
      "bull": 7283,
      "sheets": 7284,
      "realizing": 7285,
      "server": 7286,
      "fined": 7287,
      "agos": 7288,
      "miser": 7289,
      "foods": 7290,
      "arrow": 7291,
      "tracks": 7292,
      "loaded": 7293,
      "burned": 7294,
      "authorities": 7295,
      "hunting": 7296,
      "demands": 7297,
      "placing": 7298,
      "Taliban": 7299,
      "profoundly": 7300,
      "promised": 7301,
      "implement": 7302,
      "precedented": 7303,
      "Beijing": 7304,
      "August": 7305,
      "Dad": 7306,
      "Jud": 7307,
      "Ray": 7308,
      "Tes": 7309,
      "].": 7310,
      "aa": 7311,
      "dum": 7312,
      "fib": 7313,
      "hes": 7314,
      "kin": 7315,
      "pond": 7316,
      "sin": 7317,
      "tat": 7318,
      "reactions": 7319,
      "leather": 7320,
      "meg": 7321,
      "loving": 7322,
      "aded": 7323,
      "imit": 7324,
      "unprecedented": 7325,
      "compos": 7326,
      "comments": 7327,
      "odds": 7328,
      "spont": 7329,
      "pride": 7330,
      "chances": 7331,
      "Church": 7332,
      "decor": 7333,
      "aze": 7334,
      "transmit": 7335,
      "homework": 7336,
      "angible": 7337,
      "nights": 7338,
      "innocent": 7339,
      "winds": 7340,
      "traditions": 7341,
      "grandparents": 7342,
      "improving": 7343,
      "staying": 7344,
      "tower": 7345,
      "included": 7346,
      "mploy": 7347,
      "burden": 7348,
      "widely": 7349,
      "occurs": 7350,
      "acceptable": 7351,
      "significantly": 7352,
      "deserve": 7353,
      "defend": 7354,
      "initially": 7355,
      "physicists": 7356,
      "remaining": 7357,
      "halluc": 7358,
      "conservative": 7359,
      "vulnerability": 7360,
      "substance": 7361,
      "Minister": 7362,
      "chips": 7363,
      "conducted": 7364,
      "branch": 7365,
      "interpretation": 7366,
      "ownership": 7367,
      "jumped": 7368,
      "glamorous": 7369,
      "shipping": 7370,
      "currency": 7371,
      "trajectory": 7372,
      "curriculum": 7373,
      "Cour": 7374,
      "Chi": 7375,
      "Count": 7376,
      "Dutch": 7377,
      "EM": 7378,
      "Eric": 7379,
      "Homo": 7380,
      "Men": 7381,
      "Mach": 7382,
      "March": 7383,
      "Net": 7384,
      "Unt": 7385,
      "dating": 7386,
      "glim": 7387,
      "slo": 7388,
      "vy": 7389,
      "vice": 7390,
      "vents": 7391,
      "alpha": 7392,
      "asters": 7393,
      "chim": 7394,
      "rog": 7395,
      "outer": 7396,
      "adm": 7397,
      "deck": 7398,
      "defic": 7399,
      "contemporary": 7400,
      "expos": 7401,
      "upside": 7402,
      "civic": 7403,
      "reducing": 7404,
      "bold": 7405,
      "channels": 7406,
      "observe": 7407,
      "marg": 7408,
      "instantly": 7409,
      "drone": 7410,
      "tsun": 7411,
      "clothing": 7412,
      "valid": 7413,
      "leged": 7414,
      "facilities": 7415,
      "Peace": 7416,
      "iences": 7417,
      "steal": 7418,
      "ordinarily": 7419,
      "tendency": 7420,
      "footage": 7421,
      "Northern": 7422,
      "survived": 7423,
      "flowing": 7424,
      "combat": 7425,
      "panel": 7426,
      "compassionate": 7427,
      "genetics": 7428,
      "ecological": 7429,
      "threatened": 7430,
      "secrets": 7431,
      "twist": 7432,
      "detailed": 7433,
      "influenced": 7434,
      "soup": 7435,
      "rays": 7436,
      "wealthy": 7437,
      "gathered": 7438,
      "gaps": 7439,
      "incentive": 7440,
      "substant": 7441,
      "established": 7442,
      "preserve": 7443,
      "frustrated": 7444,
      "rubber": 7445,
      "Saharan": 7446,
      "obstacles": 7447,
      "shrink": 7448,
      "pandemic": 7449,
      "nutrients": 7450,
      "comparison": 7451,
      "Spanish": 7452,
      "Bronx": 7453,
      "Far": 7454,
      "Mont": 7455,
      "dile": 7456,
      "dung": 7457,
      "jug": 7458,
      "ancing": 7459,
      "reminds": 7460,
      "rehab": 7461,
      "atar": 7462,
      "onic": 7463,
      "sey": 7464,
      "acou": 7465,
      "haust": 7466,
      "lia": 7467,
      "ched": 7468,
      "dop": 7469,
      "ador": 7470,
      "impression": 7471,
      "canopy": 7472,
      "worms": 7473,
      "convey": 7474,
      "urable": 7475,
      "trace": 7476,
      "export": 7477,
      "exhaust": 7478,
      "atever": 7479,
      "shout": 7480,
      "igen": 7481,
      "sav": 7482,
      "Whatever": 7483,
      "distract": 7484,
      "formal": 7485,
      "commission": 7486,
      "vial": 7487,
      "courses": 7488,
      "socially": 7489,
      "engines": 7490,
      "mindset": 7491,
      "farms": 7492,
      "generating": 7493,
      "awn": 7494,
      "reasonable": 7495,
      "factories": 7496,
      "classical": 7497,
      "kills": 7498,
      "queen": 7499,
      "purposes": 7500,
      "explosion": 7501,
      "pollut": 7502,
      "delivery": 7503,
      "wildlife": 7504,
      "detection": 7505,
      "lifes": 7506,
      "cruel": 7507,
      "Prince": 7508,
      "judgment": 7509,
      "compete": 7510,
      "cotton": 7511,
      "historic": 7512,
      "gentleman": 7513,
      "pigs": 7514,
      "insights": 7515,
      "strategic": 7516,
      "trigger": 7517,
      "neutral": 7518,
      "column": 7519,
      "categories": 7520,
      "aggressive": 7521,
      "anonymous": 7522,
      "simultaneously": 7523,
      "Square": 7524,
      "intrigu": 7525,
      "Under": 7526,
      "dilem": 7527,
      "55": 7528,
      "Cons": 7529,
      "Hen": 7530,
      "Open": 7531,
      "Van": 7532,
      "Watch": 7533,
      "bind": 7534,
      "crop": 7535,
      "dump": 7536,
      "fice": 7537,
      "hors": 7538,
      "lions": 7539,
      "nie": 7540,
      "someday": 7541,
      "yal": 7542,
      "ini": 7543,
      "theast": 7544,
      "reme": 7545,
      "reactor": 7546,
      "ongoing": 7547,
      "encoun": 7548,
      "align": 7549,
      "beating": 7550,
      "acies": 7551,
      "rope": 7552,
      "wires": 7553,
      "ctica": 7554,
      "ambig": 7555,
      "tray": 7556,
      "unity": 7557,
      "uncle": 7558,
      "extension": 7559,
      "coat": 7560,
      "coca": 7561,
      "ela": 7562,
      "eline": 7563,
      "kingdom": 7564,
      "intensive": 7565,
      "cric": 7566,
      "crap": 7567,
      "ulture": 7568,
      "crew": 7569,
      "ademy": 7570,
      "realistic": 7571,
      "uctive": 7572,
      "versions": 7573,
      "1960": 7574,
      "1950s": 7575,
      "numer": 7576,
      "transcend": 7577,
      "diam": 7578,
      "Howard": 7579,
      "healthier": 7580,
      "subway": 7581,
      "Indians": 7582,
      "structural": 7583,
      "signature": 7584,
      "connects": 7585,
      "camps": 7586,
      "pedest": 7587,
      "demographic": 7588,
      "performed": 7589,
      "tends": 7590,
      "explains": 7591,
      "supporting": 7592,
      "analogy": 7593,
      "medication": 7594,
      "accounts": 7595,
      "Phil": 7596,
      "nuts": 7597,
      "adapted": 7598,
      "scholar": 7599,
      "remained": 7600,
      "journalists": 7601,
      "garbage": 7602,
      "restaurants": 7603,
      "magnific": 7604,
      "expertise": 7605,
      "dressed": 7606,
      ".'\"": 7607,
      "Alexander": 7608,
      "bottles": 7609,
      "legitimate": 7610,
      "sacrifice": 7611,
      "Antarctica": 7612,
      "Italian": 7613,
      "cosmic": 7614,
      "Cur": 7615,
      "Jose": 7616,
      "RB": 7617,
      "Som": 7618,
      "Saudi": 7619,
      "Tas": 7620,
      "],": 7621,
      "bid": 7622,
      "bend": 7623,
      "file": 7624,
      "mac": 7625,
      "sized": 7626,
      "ania": 7627,
      "iso": 7628,
      "islands": 7629,
      "esign": 7630,
      "habits": 7631,
      "rose": 7632,
      "dose": 7633,
      "females": 7634,
      "contrad": 7635,
      "tragic": 7636,
      "proven": 7637,
      "pless": 7638,
      "ody": 7639,
      "butter": 7640,
      "colored": 7641,
      "mentally": 7642,
      "phony": 7643,
      "disability": 7644,
      "gotta": 7645,
      "intim": 7646,
      "despair": 7647,
      "genu": 7648,
      "sons": 7649,
      "wrap": 7650,
      "pause": 7651,
      "2011": 7652,
      "drones": 7653,
      "computation": 7654,
      "airplanes": 7655,
      "badly": 7656,
      "sixth": 7657,
      "classrooms": 7658,
      "Although": 7659,
      "trains": 7660,
      "fluores": 7661,
      "harness": 7662,
      "nonprofit": 7663,
      "drawings": 7664,
      "angered": 7665,
      "Both": 7666,
      "ticket": 7667,
      "annual": 7668,
      "straightforward": 7669,
      "snap": 7670,
      "tubes": 7671,
      "blogs": 7672,
      "alternatives": 7673,
      "navigate": 7674,
      "Council": 7675,
      "portrait": 7676,
      "stereoty": 7677,
      "Southern": 7678,
      "iPod": 7679,
      "awkward": 7680,
      "tongue": 7681,
      "diamond": 7682,
      "37": 7683,
      "Econom": 7684,
      "Hill": 7685,
      "Mike": 7686,
      "OL": 7687,
      "Same": 7688,
      "Wil": 7689,
      "aer": 7690,
      "bats": 7691,
      "dough": 7692,
      "jok": 7693,
      "nap": 7694,
      "nail": 7695,
      "pon": 7696,
      "pad": 7697,
      "sca": 7698,
      "anno": 7699,
      "recover": 7700,
      "resem": 7701,
      "toes": 7702,
      "enjo": 7703,
      "altru": 7704,
      "alga": 7705,
      "itudes": 7706,
      "sew": 7707,
      "stones": 7708,
      "entropy": 7709,
      "verb": 7710,
      "liar": 7711,
      "chol": 7712,
      "gear": 7713,
      "loves": 7714,
      "neys": 7715,
      "fears": 7716,
      "trical": 7717,
      "percept": 7718,
      "ateur": 7719,
      "shor": 7720,
      "agents": 7721,
      "redesign": 7722,
      "aches": 7723,
      "boats": 7724,
      "blown": 7725,
      "ension": 7726,
      "clay": 7727,
      "adequ": 7728,
      "simp": 7729,
      "glow": 7730,
      "paradox": 7731,
      "generous": 7732,
      "passive": 7733,
      "passenger": 7734,
      "traits": 7735,
      "Newton": 7736,
      "researcher": 7737,
      "devil": 7738,
      "labs": 7739,
      "appearing": 7740,
      "speaks": 7741,
      "potent": 7742,
      "fathers": 7743,
      "Frid": 7744,
      "eaten": 7745,
      "silver": 7746,
      "Whereas": 7747,
      "concert": 7748,
      "peaceful": 7749,
      "believes": 7750,
      "Point": 7751,
      "bulb": 7752,
      "earliest": 7753,
      "package": 7754,
      "continuing": 7755,
      "catching": 7756,
      "scanner": 7757,
      "Secondly": 7758,
      "officer": 7759,
      "corporations": 7760,
      "Monte": 7761,
      "matrix": 7762,
      "collapsed": 7763,
      "guns": 7764,
      "poems": 7765,
      "rituals": 7766,
      "circuits": 7767,
      "ratio": 7768,
      "perceived": 7769,
      "NGOs": 7770,
      "vagina": 7771,
      "occasionally": 7772,
      "Delhi": 7773,
      "impressive": 7774,
      "excellent": 7775,
      "otechnology": 7776,
      "Palestin": 7777,
      "excitement": 7778,
      "cigaret": 7779,
      "closest": 7780,
      "dopamine": 7781,
      "genuine": 7782,
      "36": 7783,
      "AT": 7784,
      "Age": 7785,
      "Asian": 7786,
      "Bio": 7787,
      "Ford": 7788,
      "Him": 7789,
      "Kev": 7790,
      "Lab": 7791,
      "Tri": 7792,
      "Tel": 7793,
      "Tanz": 7794,
      "athan": 7795,
      "aving": 7796,
      "bie": 7797,
      "dumb": 7798,
      "fancy": 7799,
      "ored": 7800,
      "tissues": 7801,
      "reinvent": 7802,
      "ora": 7803,
      "arc": 7804,
      "stability": 7805,
      "ller": 7806,
      "entry": 7807,
      "forgot": 7808,
      "mobility": 7809,
      "delay": 7810,
      "compreh": 7811,
      "excess": 7812,
      "mapping": 7813,
      "tier": 7814,
      "tile": 7815,
      "embod": 7816,
      "empowered": 7817,
      "disrupt": 7818,
      "backs": 7819,
      "blank": 7820,
      "preval": 7821,
      "rape": 7822,
      "fles": 7823,
      "highway": 7824,
      "2050": 7825,
      "2012": 7826,
      "addiction": 7827,
      "lowest": 7828,
      "continents": 7829,
      "Moore": 7830,
      "biologist": 7831,
      "household": 7832,
      "opera": 7833,
      "cuts": 7834,
      "robotics": 7835,
      "protest": 7836,
      "impul": 7837,
      "collectively": 7838,
      "horus": 7839,
      "typing": 7840,
      "copic": 7841,
      "Develo": 7842,
      "improvis": 7843,
      "unemploy": 7844,
      "prediction": 7845,
      "approaching": 7846,
      "nearby": 7847,
      "terribly": 7848,
      "religions": 7849,
      "Coll": 7850,
      "client": 7851,
      "synchron": 7852,
      "burgh": 7853,
      "activate": 7854,
      "Shang": 7855,
      "strike": 7856,
      "appearance": 7857,
      "phenomena": 7858,
      "achievement": 7859,
      "graduated": 7860,
      "precious": 7861,
      "teenager": 7862,
      "encouraged": 7863,
      "applying": 7864,
      "System": 7865,
      "heavi": 7866,
      "previously": 7867,
      "dragon": 7868,
      "blowing": 7869,
      "propag": 7870,
      "branches": 7871,
      "vegetables": 7872,
      "monitoring": 7873,
      "assignment": 7874,
      "bathroom": 7875,
      "Technology": 7876,
      "items": 7877,
      "decrease": 7878,
      "comedy": 7879,
      "arrested": 7880,
      "luxury": 7881,
      "investors": 7882,
      "Aris": 7883,
      "Fo": 7884,
      "FBI": 7885,
      "Hall": 7886,
      "Mag": 7887,
      "Rand": 7888,
      "Snow": 7889,
      "Seven": 7890,
      "Tun": 7891,
      "Twenty": 7892,
      "UC": 7893,
      "UN": 7894,
      "nes": 7895,
      "osome": 7896,
      "ooh": 7897,
      "western": 7898,
      "replaced": 7899,
      "aland": 7900,
      "semin": 7901,
      "ician": 7902,
      "aced": 7903,
      "ares": 7904,
      "arest": 7905,
      "pets": 7906,
      "worm": 7907,
      "propose": 7908,
      "plates": 7909,
      "umines": 7910,
      "estate": 7911,
      "sauce": 7912,
      "grasp": 7913,
      "seemingly": 7914,
      "covers": 7915,
      "uded": 7916,
      "discrimin": 7917,
      "synd": 7918,
      "spell": 7919,
      "genic": 7920,
      "managers": 7921,
      "offices": 7922,
      "mayor": 7923,
      "sciences": 7924,
      "Being": 7925,
      "smallest": 7926,
      "adder": 7927,
      "Indones": 7928,
      "Neander": 7929,
      "password": 7930,
      "freely": 7931,
      "sensation": 7932,
      "bench": 7933,
      "landscapes": 7934,
      "aneous": 7935,
      "affecting": 7936,
      "destiny": 7937,
      "lized": 7938,
      "recep": 7939,
      "psychologist": 7940,
      "raped": 7941,
      "discovering": 7942,
      "prisoners": 7943,
      "sweat": 7944,
      "interviewed": 7945,
      "wheels": 7946,
      "broadcast": 7947,
      "philosopher": 7948,
      "Josh": 7949,
      "diagnosis": 7950,
      "thesia": 7951,
      "exercis": 7952,
      "chimpanzee": 7953,
      "phantom": 7954,
      "mushroom": 7955,
      "customer": 7956,
      "procedure": 7957,
      "guarantee": 7958,
      "Queen": 7959,
      "jellyfish": 7960,
      "wandering": 7961,
      "Sunday": 7962,
      "Until": 7963,
      "tsunami": 7964,
      "Shanghai": 7965,
      "During": 7966,
      "Fer": 7967,
      "Koran": 7968,
      "LG": 7969,
      "Little": 7970,
      "Mah": 7971,
      "Mos": 7972,
      "Mountain": 7973,
      "Nine": 7974,
      "Nel": 7975,
      "Sus": 7976,
      "Spr": 7977,
      "Sky": 7978,
      "Santa": 7979,
      "Vic": 7980,
      "bureau": 7981,
      "dut": 7982,
      "fest": 7983,
      "hh": 7984,
      "hug": 7985,
      "hiding": 7986,
      "len": 7987,
      "anni": 7988,
      "rein": 7989,
      "recess": 7990,
      "resolve": 7991,
      "orn": 7992,
      "abul": 7993,
      "los": 7994,
      "rip": 7995,
      "imper": 7996,
      "amateur": 7997,
      "caves": 7998,
      "ulin": 7999,
      "useless": 8000,
      "mainst": 8001,
      "safer": 8002,
      "pockets": 8003,
      "residents": 8004,
      "apy": 8005,
      "cooperate": 8006,
      "endangered": 8007,
      "workforce": 8008,
      "yourselves": 8009,
      "spat": 8010,
      "suits": 8011,
      "asty": 8012,
      "obese": 8013,
      "downtown": 8014,
      "manager": 8015,
      "offering": 8016,
      "faction": 8017,
      "builds": 8018,
      "stomach": 8019,
      "interven": 8020,
      "interior": 8021,
      "highlight": 8022,
      "parks": 8023,
      "hardest": 8024,
      "regis": 8025,
      "wheat": 8026,
      "grams": 8027,
      "2002": 8028,
      "eady": 8029,
      "distances": 8030,
      "Moz": 8031,
      "remembering": 8032,
      "approved": 8033,
      "appeal": 8034,
      "stepped": 8035,
      "fallen": 8036,
      "breakfast": 8037,
      "extraordinarily": 8038,
      "specialized": 8039,
      "territory": 8040,
      "posted": 8041,
      "divor": 8042,
      "Donald": 8043,
      "challenged": 8044,
      "transforming": 8045,
      "Johnson": 8046,
      "juries": 8047,
      "vaccines": 8048,
      "July": 8049,
      "dominated": 8050,
      "flags": 8051,
      "storage": 8052,
      "ignored": 8053,
      "assistance": 8054,
      "administration": 8055,
      "Sudden": 8056,
      "chromosome": 8057,
      "responses": 8058,
      "retirement": 8059,
      "helicopter": 8060,
      "schizophrenia": 8061,
      "ubiquit": 8062,
      "Leonardo": 8063,
      "fibers": 8064,
      "Nelson": 8065,
      "AM": 8066,
      "Bi": 8067,
      "Brian": 8068,
      "Ca": 8069,
      "DV": 8070,
      "HC": 8071,
      "Les": 8072,
      "Mat": 8073,
      "Mur": 8074,
      "Stage": 8075,
      "TI": 8076,
      "Tam": 8077,
      "Yemen": 8078,
      "bam": 8079,
      "bite": 8080,
      "divid": 8081,
      "junk": 8082,
      "nu": 8083,
      "piz": 8084,
      "vary": 8085,
      "rer": 8086,
      "encry": 8087,
      "enzy": 8088,
      "alty": 8089,
      "stig": 8090,
      "aby": 8091,
      "rolled": 8092,
      "ghter": 8093,
      "locom": 8094,
      "terrain": 8095,
      "iff": 8096,
      "deaf": 8097,
      "unhappy": 8098,
      "ustrate": 8099,
      "artif": 8100,
      "ilty": 8101,
      "Its": 8102,
      "quis": 8103,
      "grace": 8104,
      "coin": 8105,
      "clue": 8106,
      "cratic": 8107,
      "obtain": 8108,
      "offers": 8109,
      "hired": 8110,
      "stopping": 8111,
      "coln": 8112,
      "memes": 8113,
      "bably": 8114,
      "drought": 8115,
      "cares": 8116,
      "visions": 8117,
      "native": 8118,
      "economist": 8119,
      "mentor": 8120,
      "audiences": 8121,
      "hormon": 8122,
      "hormone": 8123,
      "Brown": 8124,
      "pursuit": 8125,
      "Yorker": 8126,
      "supermarket": 8127,
      "defining": 8128,
      "pene": 8129,
      "terrifying": 8130,
      "rainforest": 8131,
      "slime": 8132,
      "gained": 8133,
      "panic": 8134,
      "pollin": 8135,
      "woods": 8136,
      "locally": 8137,
      "concerns": 8138,
      "slums": 8139,
      "synthesis": 8140,
      "ecology": 8141,
      "Anyone": 8142,
      "airo": 8143,
      "packed": 8144,
      "Except": 8145,
      "Michel": 8146,
      "teenage": 8147,
      "encouraging": 8148,
      "motivated": 8149,
      "mammal": 8150,
      "claims": 8151,
      "correctly": 8152,
      "contrary": 8153,
      "Medic": 8154,
      "psychopath": 8155,
      "succeeded": 8156,
      "vacation": 8157,
      "volunteer": 8158,
      "migration": 8159,
      "imagining": 8160,
      "concentrated": 8161,
      "troops": 8162,
      "estimates": 8163,
      "desperately": 8164,
      "absence": 8165,
      "constraints": 8166,
      "breeding": 8167,
      "Lincoln": 8168,
      "mathematicians": 8169,
      "controversi": 8170,
      "Half": 8171,
      "keepers": 8172,
      "phosphorus": 8173,
      "miserable": 8174,
      "tattoo": 8175,
      "Henry": 8176,
      "horses": 8177,
      "cocaine": 8178,
      "ubiquitous": 8179,
      "31": 8180,
      "Au": 8181,
      "Abra": 8182,
      "Bel": 8183,
      "Def": 8184,
      "EC": 8185,
      "Eight": 8186,
      "Ham": 8187,
      "Jane": 8188,
      "Play": 8189,
      "Stop": 8190,
      "Try": 8191,
      "Wat": 8192,
      "aver": 8193,
      "bother": 8194,
      "drew": 8195,
      "gg": 8196,
      "gif": 8197,
      "ipped": 8198,
      "jam": 8199,
      "jazz": 8200,
      "lind": 8201,
      "pills": 8202,
      "rof": 8203,
      "vas": 8204,
      "reproduce": 8205,
      "enem": 8206,
      "enforce": 8207,
      "itative": 8208,
      "lever": 8209,
      "icious": 8210,
      "bean": 8211,
      "acknowledge": 8212,
      "melt": 8213,
      "lith": 8214,
      "rob": 8215,
      "prope": 8216,
      "proved": 8217,
      "indigen": 8218,
      "sail": 8219,
      "brick": 8220,
      "donor": 8221,
      "phic": 8222,
      "overnight": 8223,
      "disabled": 8224,
      "formula": 8225,
      "guilty": 8226,
      "prevention": 8227,
      "observed": 8228,
      "contamin": 8229,
      "interconnected": 8230,
      "storytelling": 8231,
      "1960s": 8232,
      "trivial": 8233,
      "cellular": 8234,
      "transmission": 8235,
      "insane": 8236,
      "planetary": 8237,
      "ashed": 8238,
      "connectivity": 8239,
      "fisher": 8240,
      "equations": 8241,
      "funds": 8242,
      "advances": 8243,
      "dropping": 8244,
      "potato": 8245,
      "stays": 8246,
      "safely": 8247,
      "describes": 8248,
      "forestation": 8249,
      "consumed": 8250,
      "slip": 8251,
      "locations": 8252,
      "division": 8253,
      "attacked": 8254,
      "loads": 8255,
      "clinics": 8256,
      "Anybody": 8257,
      "bullet": 8258,
      "Probably": 8259,
      "striking": 8260,
      "continuous": 8261,
      "belly": 8262,
      "scanning": 8263,
      "reflection": 8264,
      "honestly": 8265,
      "wedding": 8266,
      "sched": 8267,
      "beaten": 8268,
      "fatal": 8269,
      "Media": 8270,
      "Brazili": 8271,
      "puzzles": 8272,
      "ritual": 8273,
      "missions": 8274,
      "Build": 8275,
      "scenes": 8276,
      "academ": 8277,
      "limitations": 8278,
      "manipulate": 8279,
      "arguing": 8280,
      "minimum": 8281,
      "whistle": 8282,
      "preparing": 8283,
      "Gandhi": 8284,
      "Banglades": 8285,
      "Brooklyn": 8286,
      "jihad": 8287,
      "Industrial": 8288,
      "magnificent": 8289,
      "algae": 8290,
      "Friday": 8291,
      "mainstream": 8292,
      "Suddenly": 8293,
      "indigenous": 8294,
      ",'": 8295,
      "Bre": 8296,
      "Brun": 8297,
      "Di": 8298,
      "Du": 8299,
      "Elect": 8300,
      "Jon": 8301,
      "Lord": 8302,
      "Lake": 8303,
      "Ter": 8304,
      "Tony": 8305,
      "Way": 8306,
      "avi": 8307,
      "aug": 8308,
      "ek": 8309,
      "fate": 8310,
      "ko": 8311,
      "lined": 8312,
      "mall": 8313,
      "rank": 8314,
      "thread": 8315,
      "toss": 8316,
      "envelo": 8317,
      "asion": 8318,
      "assets": 8319,
      "behalf": 8320,
      "lobby": 8321,
      "motors": 8322,
      "traction": 8323,
      "proceed": 8324,
      "rescu": 8325,
      "cose": 8326,
      "strings": 8327,
      "humanitarian": 8328,
      "compli": 8329,
      "compound": 8330,
      "stored": 8331,
      "label": 8332,
      "biol": 8333,
      "calories": 8334,
      "20s": 8335,
      "cylind": 8336,
      "headlines": 8337,
      "...\"": 8338,
      "auth": 8339,
      "warri": 8340,
      "valley": 8341,
      "halfway": 8342,
      "ocking": 8343,
      "News": 8344,
      "amazed": 8345,
      "bedroom": 8346,
      "Moon": 8347,
      "amazingly": 8348,
      "Almost": 8349,
      "marketplace": 8350,
      "relief": 8351,
      "failures": 8352,
      "listened": 8353,
      "copies": 8354,
      "convict": 8355,
      "Leban": 8356,
      "folds": 8357,
      "bulbs": 8358,
      "infections": 8359,
      "1998": 8360,
      "calculations": 8361,
      "emails": 8362,
      "College": 8363,
      "contributed": 8364,
      "Talks": 8365,
      "selected": 8366,
      "surrounding": 8367,
      "doubled": 8368,
      "Israeli": 8369,
      "palm": 8370,
      "frequently": 8371,
      "newspapers": 8372,
      "elementary": 8373,
      "concentration": 8374,
      "lifted": 8375,
      "inevitably": 8376,
      "electrodes": 8377,
      "recycling": 8378,
      "Silicon": 8379,
      "ambitious": 8380,
      "altitude": 8381,
      "barrier": 8382,
      "mimic": 8383,
      "geometry": 8384,
      "orchestra": 8385,
      "champion": 8386,
      "athletes": 8387,
      "elegant": 8388,
      "Mandela": 8389,
      "prosperity": 8390,
      "Wait": 8391,
      "Carolina": 8392,
      "exposure": 8393,
      "350": 8394,
      "AB": 8395,
      "Detro": 8396,
      "Had": 8397,
      "Mas": 8398,
      "Ron": 8399,
      "SW": 8400,
      "bills": 8401,
      "dated": 8402,
      "gments": 8403,
      "hunt": 8404,
      "mously": 8405,
      "nodes": 8406,
      "sir": 8407,
      "ubs": 8408,
      "voting": 8409,
      "infer": 8410,
      "ativity": 8411,
      "orphan": 8412,
      "stad": 8413,
      "stum": 8414,
      "oton": 8415,
      "lize": 8416,
      "chop": 8417,
      "loose": 8418,
      "irts": 8419,
      "ading": 8420,
      "immers": 8421,
      "deter": 8422,
      "Social": 8423,
      "cafe": 8424,
      "prostate": 8425,
      "proposition": 8426,
      "workplace": 8427,
      "owning": 8428,
      "wore": 8429,
      "distor": 8430,
      "kindness": 8431,
      "inton": 8432,
      "prey": 8433,
      "manner": 8434,
      "socio": 8435,
      "calm": 8436,
      "foundations": 8437,
      "drum": 8438,
      "1900": 8439,
      "1990": 8440,
      "glue": 8441,
      "heading": 8442,
      "insulin": 8443,
      "uniform": 8444,
      "hometown": 8445,
      "addy": 8446,
      "subur": 8447,
      "crimes": 8448,
      "gesture": 8449,
      "lanes": 8450,
      "traum": 8451,
      "educate": 8452,
      "Someone": 8453,
      "beautifully": 8454,
      "follows": 8455,
      "deepest": 8456,
      "purple": 8457,
      "sexy": 8458,
      "micros": 8459,
      "Liber": 8460,
      "communicating": 8461,
      "grades": 8462,
      "pencil": 8463,
      "approached": 8464,
      "terrified": 8465,
      "Coast": 8466,
      "multiply": 8467,
      "believing": 8468,
      "activist": 8469,
      "sections": 8470,
      "physicians": 8471,
      "juven": 8472,
      "partnership": 8473,
      "assemble": 8474,
      "Feyn": 8475,
      "demonstrated": 8476,
      "installed": 8477,
      "installation": 8478,
      "hypothe": 8479,
      "toilets": 8480,
      "Brother": 8481,
      "recipe": 8482,
      "initiative": 8483,
      "estimated": 8484,
      "accomplish": 8485,
      "renewable": 8486,
      "Hawai": 8487,
      "lonely": 8488,
      "Zealand": 8489,
      "tropical": 8490,
      "expedition": 8491,
      "Govern": 8492,
      "Court": 8493,
      "cricket": 8494,
      "Indonesia": 8495,
      "controversial": 8496,
      "Feynman": 8497,
      "38": 8498,
      "Hans": 8499,
      "Hong": 8500,
      "Ire": 8501,
      "Know": 8502,
      "Mod": 8503,
      "Qa": 8504,
      "Rome": 8505,
      "Swit": 8506,
      "Still": 8507,
      "Ve": 8508,
      "Wind": 8509,
      "award": 8510,
      "cows": 8511,
      "kins": 8512,
      "nom": 8513,
      "oes": 8514,
      "pale": 8515,
      "tary": 8516,
      "enix": 8517,
      "letal": 8518,
      "staring": 8519,
      "omics": 8520,
      "icial": 8521,
      "weed": 8522,
      "verbal": 8523,
      "peare": 8524,
      "cancers": 8525,
      "ifer": 8526,
      "dece": 8527,
      "Sol": 8528,
      "explicit": 8529,
      "likelihood": 8530,
      "shocking": 8531,
      "illustrate": 8532,
      "ansas": 8533,
      "astics": 8534,
      "happily": 8535,
      "overhead": 8536,
      "blink": 8537,
      "enses": 8538,
      "possess": 8539,
      "epi": 8540,
      "humili": 8541,
      "icked": 8542,
      "compar": 8543,
      "minus": 8544,
      "Bell": 8545,
      "paired": 8546,
      "kespeare": 8547,
      "nerves": 8548,
      "Nove": 8549,
      "regulation": 8550,
      "trail": 8551,
      "politically": 8552,
      "hybrid": 8553,
      "Security": 8554,
      "predators": 8555,
      "personalized": 8556,
      "origins": 8557,
      "receiving": 8558,
      "Coke": 8559,
      "psychologists": 8560,
      "variations": 8561,
      "folded": 8562,
      "uba": 8563,
      "catastro": 8564,
      "blindness": 8565,
      "calculated": 8566,
      "narratives": 8567,
      "worrying": 8568,
      "interviews": 8569,
      "officials": 8570,
      "competing": 8571,
      "civilizations": 8572,
      "therapies": 8573,
      "batteries": 8574,
      "stimul": 8575,
      "punishment": 8576,
      "Shakespeare": 8577,
      "telescopes": 8578,
      "glamour": 8579,
      "grocer": 8580,
      "subsid": 8581,
      "delicious": 8582,
      "devastating": 8583,
      "hierarchy": 8584,
      "supplies": 8585,
      "Swiss": 8586,
      "intrins": 8587,
      "glucose": 8588,
      "Chile": 8589,
      "enjoying": 8590,
      "Monterey": 8591,
      "syndrome": 8592,
      "enemies": 8593,
      "Detroit": 8594,
      "Qaeda": 8595,
      "Amy": 8596,
      "Apri": 8597,
      "Creat": 8598,
      "DR": 8599,
      "ES": 8600,
      "HA": 8601,
      "JA": 8602,
      "JH": 8603,
      "Kat": 8604,
      "Kar": 8605,
      "Mass": 8606,
      "Nick": 8607,
      "Rad": 8608,
      "Rather": 8609,
      "Scient": 8610,
      "Vol": 8611,
      "Wi": 8612,
      "echo": 8613,
      "lor": 8614,
      "lists": 8615,
      "matic": 8616,
      "oy": 8617,
      "rance": 8618,
      "sperm": 8619,
      "tact": 8620,
      "tables": 8621,
      "tiles": 8622,
      "uk": 8623,
      "yards": 8624,
      "inction": 8625,
      "independence": 8626,
      "ano": 8627,
      "ised": 8628,
      "torian": 8629,
      "lete": 8630,
      "healing": 8631,
      "vet": 8632,
      "meme": 8633,
      "meals": 8634,
      "deals": 8635,
      "congest": 8636,
      "comic": 8637,
      "olic": 8638,
      "oked": 8639,
      "shy": 8640,
      "sake": 8641,
      "bleed": 8642,
      "eman": 8643,
      "blah": 8644,
      "cracy": 8645,
      "aft": 8646,
      "irect": 8647,
      "ucers": 8648,
      "curves": 8649,
      "drain": 8650,
      "chef": 8651,
      "cloped": 8652,
      "parach": 8653,
      "bush": 8654,
      "buses": 8655,
      "drift": 8656,
      "charged": 8657,
      "evolving": 8658,
      "cub": 8659,
      "denial": 8660,
      "namely": 8661,
      "steam": 8662,
      "banking": 8663,
      "picks": 8664,
      "sale": 8665,
      "bacterial": 8666,
      "burg": 8667,
      "activists": 8668,
      "occurring": 8669,
      "Stephen": 8670,
      "laptops": 8671,
      "remix": 8672,
      "integration": 8673,
      "contribution": 8674,
      "enjoyed": 8675,
      "expressed": 8676,
      "expressions": 8677,
      "randomly": 8678,
      "tunnel": 8679,
      "crystal": 8680,
      "technically": 8681,
      "taxes": 8682,
      "Berlin": 8683,
      "historically": 8684,
      "pige": 8685,
      "epidem": 8686,
      "opinions": 8687,
      "Academy": 8688,
      "surgeons": 8689,
      "sanitation": 8690,
      "spinning": 8691,
      "regardless": 8692,
      "binary": 8693,
      "simpler": 8694,
      "revealed": 8695,
      "nitrogen": 8696,
      "ceremony": 8697,
      "Iceland": 8698,
      "Listen": 8699,
      "Tasman": 8700,
      "Kevin": 8701,
      "DVD": 8702,
      "pizza": 8703,
      "biolumines": 8704,
      "November": 8705,
      "April": 8706,
      "72": 8707,
      "Bus": 8708,
      "Cer": 8709,
      "Free": 8710,
      "Jones": 8711,
      "Mich": 8712,
      "Miss": 8713,
      "Rick": 8714,
      "Sen": 8715,
      "Sel": 8716,
      "USA": 8717,
      "aise": 8718,
      "cree": 8719,
      "cens": 8720,
      "cattle": 8721,
      "hated": 8722,
      "pum": 8723,
      "paste": 8724,
      "yan": 8725,
      "zones": 8726,
      "inth": 8727,
      "inery": 8728,
      "anatom": 8729,
      "tos": 8730,
      "album": 8731,
      "assa": 8732,
      "asleep": 8733,
      "sty": 8734,
      "metric": 8735,
      "peers": 8736,
      "pecu": 8737,
      "thermal": 8738,
      "ules": 8739,
      "composition": 8740,
      "plastics": 8741,
      "elabor": 8742,
      "intact": 8743,
      "intensity": 8744,
      "sheer": 8745,
      "fulness": 8746,
      "readers": 8747,
      "fled": 8748,
      "landing": 8749,
      "corners": 8750,
      "topics": 8751,
      "publishing": 8752,
      "Force": 8753,
      "untary": 8754,
      "fisheries": 8755,
      "operative": 8756,
      "culti": 8757,
      "drops": 8758,
      "excuse": 8759,
      "messy": 8760,
      "shoe": 8761,
      "masses": 8762,
      "Canad": 8763,
      "predator": 8764,
      "millimeter": 8765,
      "digest": 8766,
      "winner": 8767,
      "medicines": 8768,
      "statistic": 8769,
      "gorge": 8770,
      "responded": 8771,
      "introduction": 8772,
      "websites": 8773,
      "Geographic": 8774,
      "temperatures": 8775,
      "continuously": 8776,
      "Harry": 8777,
      "Mean": 8778,
      "destroying": 8779,
      "electrons": 8780,
      "diameter": 8781,
      "belongs": 8782,
      "satisfaction": 8783,
      "reserves": 8784,
      "Clinton": 8785,
      "apore": 8786,
      "Turk": 8787,
      "suspended": 8788,
      "width": 8789,
      "anticipate": 8790,
      "barriers": 8791,
      "enhance": 8792,
      "glacier": 8793,
      "Singapore": 8794,
      "legislation": 8795,
      "stabili": 8796,
      "conductor": 8797,
      "plankton": 8798,
      "glimpse": 8799,
      "Tanzania": 8800,
      "bamboo": 8801,
      "hormones": 8802,
      "Watson": 8803,
      "Bruno": 8804,
      "peculiar": 8805,
      "\"?": 8806,
      "98": 8807,
      "AK": 8808,
      "Cho": 8809,
      "Gra": 8810,
      "Hind": 8811,
      "IBM": 8812,
      "Kir": 8813,
      "Nico": 8814,
      "Pret": 8815,
      "Sand": 8816,
      "Zero": 8817,
      "abe": 8818,
      "kn": 8819,
      "mant": 8820,
      "pants": 8821,
      "rh": 8822,
      "sne": 8823,
      "wart": 8824,
      "thur": 8825,
      "onaut": 8826,
      "isha": 8827,
      "arbit": 8828,
      "arians": 8829,
      "hears": 8830,
      "chat": 8831,
      "chill": 8832,
      "roles": 8833,
      "irony": 8834,
      "usage": 8835,
      "deception": 8836,
      "Soci": 8837,
      "trapped": 8838,
      "cathe": 8839,
      "compromise": 8840,
      "prospect": 8841,
      "ola": 8842,
      "restor": 8843,
      "coli": 8844,
      "kings": 8845,
      "logging": 8846,
      "disrup": 8847,
      "criter": 8848,
      "pread": 8849,
      "genomes": 8850,
      "obs": 8851,
      "realities": 8852,
      "manual": 8853,
      "wrapped": 8854,
      "fluct": 8855,
      "smiling": 8856,
      "attitudes": 8857,
      "incidence": 8858,
      "rane": 8859,
      "tomato": 8860,
      "machinery": 8861,
      "metic": 8862,
      "Arthur": 8863,
      "approx": 8864,
      "reaches": 8865,
      "planted": 8866,
      "penis": 8867,
      "sends": 8868,
      "cooling": 8869,
      "measurements": 8870,
      "consuming": 8871,
      "appy": 8872,
      "venture": 8873,
      "zerland": 8874,
      "wishes": 8875,
      "wooden": 8876,
      "ascular": 8877,
      "Hope": 8878,
      "agreement": 8879,
      "strip": 8880,
      "remarkably": 8881,
      "1999": 8882,
      "matched": 8883,
      "prototypes": 8884,
      "hopes": 8885,
      "centralized": 8886,
      "welfare": 8887,
      "hacking": 8888,
      "regularly": 8889,
      "mesh": 8890,
      "coastal": 8891,
      "accuracy": 8892,
      "gravit": 8893,
      "automobile": 8894,
      "establish": 8895,
      "skeletal": 8896,
      "privileged": 8897,
      "simplest": 8898,
      "cockro": 8899,
      "deployed": 8900,
      "pouring": 8901,
      "labeled": 8902,
      "abandoned": 8903,
      "strands": 8904,
      "abundance": 8905,
      "Turns": 8906,
      "Organization": 8907,
      "dilemma": 8908,
      "Bangladesh": 8909,
      "Ireland": 8910,
      "Switzerland": 8911,
      "Pretty": 8912,
      "46": 8913,
      "AA": 8914,
      "AI": 8915,
      "Bos": 8916,
      "Civ": 8917,
      "Da": 8918,
      "Isa": 8919,
      "JF": 8920,
      "Kids": 8921,
      "Nord": 8922,
      "Water": 8923,
      "batt": 8924,
      "eigh": 8925,
      "figh": 8926,
      "fired": 8927,
      "jamin": 8928,
      "kiss": 8929,
      "obo": 8930,
      "sions": 8931,
      "ucer": 8932,
      "vascular": 8933,
      "wrest": 8934,
      "wins": 8935,
      "iner": 8936,
      "inary": 8937,
      "inser": 8938,
      "injuries": 8939,
      "anium": 8940,
      "rethink": 8941,
      "revel": 8942,
      "retin": 8943,
      "hail": 8944,
      "lip": 8945,
      "Andrew": 8946,
      "nearest": 8947,
      "depos": 8948,
      "tear": 8949,
      "config": 8950,
      "tras": 8951,
      "nowadays": 8952,
      "comics": 8953,
      "actively": 8954,
      "coverage": 8955,
      "bris": 8956,
      "clubs": 8957,
      "crude": 8958,
      "cream": 8959,
      "realization": 8960,
      "mankind": 8961,
      "marath": 8962,
      "marvel": 8963,
      "forecast": 8964,
      "flavor": 8965,
      "compounds": 8966,
      "biof": 8967,
      "helpless": 8968,
      "storytell": 8969,
      "2020": 8970,
      "graphs": 8971,
      "electrom": 8972,
      "passes": 8973,
      "momentum": 8974,
      "norms": 8975,
      "publicly": 8976,
      "distinction": 8977,
      "40s": 8978,
      "harmony": 8979,
      "18th": 8980,
      "petition": 8981,
      "raine": 8982,
      "Lego": 8983,
      "cardio": 8984,
      "favorites": 8985,
      "visualization": 8986,
      "ridge": 8987,
      "responding": 8988,
      "totle": 8989,
      "index": 8990,
      "crossed": 8991,
      "reflected": 8992,
      "mutations": 8993,
      "broader": 8994,
      "juice": 8995,
      "documented": 8996,
      "Absolute": 8997,
      "indicate": 8998,
      "priority": 8999,
      "Benjamin": 9000,
      "Greece": 9001,
      "observations": 9002,
      "Disney": 9003,
      "chronic": 9004,
      "administr": 9005,
      "embarrassing": 9006,
      "cluster": 9007,
      "clusters": 9008,
      "Olympic": 9009,
      "frightening": 9010,
      "maximum": 9011,
      "SETI": 9012,
      "aesthetic": 9013,
      "candidate": 9014,
      "Interest": 9015,
      "underest": 9016,
      "fluorescent": 9017,
      "adequate": 9018,
      "simplif": 9019,
      "Aristotle": 9020,
      "Brazilian": 9021,
      "Business": 9022,
      "electromag": 9023,
      "130": 9024,
      "Cath": 9025,
      "PR": 9026,
      "Plan": 9027,
      "Penn": 9028,
      "Si": 9029,
      "Vi": 9030,
      "bump": 9031,
      "cine": 9032,
      "erect": 9033,
      "fi": 9034,
      "fuse": 9035,
      "jack": 9036,
      "kers": 9037,
      "nasty": 9038,
      "pip": 9039,
      "pestic": 9040,
      "sulf": 9041,
      "twin": 9042,
      "infant": 9043,
      "recall": 9044,
      "toll": 9045,
      "itar": 9046,
      "asth": 9047,
      "archa": 9048,
      "sta": 9049,
      "icate": 9050,
      "heating": 9051,
      "keley": 9052,
      "dood": 9053,
      "sovere": 9054,
      "mob": 9055,
      "modest": 9056,
      "cel": 9057,
      "default": 9058,
      "trau": 9059,
      "anten": 9060,
      "cage": 9061,
      "perpet": 9062,
      "prose": 9063,
      "proposal": 9064,
      "arten": 9065,
      "osex": 9066,
      "dispar": 9067,
      "disasters": 9068,
      "tale": 9069,
      "couples": 9070,
      "berry": 9071,
      "wrist": 9072,
      "aker": 9073,
      "findings": 9074,
      "carries": 9075,
      "carpet": 9076,
      "interrup": 9077,
      "intersection": 9078,
      "planned": 9079,
      "understands": 9080,
      "2030": 9081,
      "kidding": 9082,
      "counted": 9083,
      "relatives": 9084,
      "transit": 9085,
      "computational": 9086,
      "processor": 9087,
      "teaches": 9088,
      "angio": 9089,
      "freezing": 9090,
      "Secre": 9091,
      "texture": 9092,
      "textbooks": 9093,
      "sequencing": 9094,
      "screaming": 9095,
      "professors": 9096,
      "Christians": 9097,
      "suggestion": 9098,
      "touching": 9099,
      "visualize": 9100,
      "riding": 9101,
      "transformative": 9102,
      "Conne": 9103,
      "synap": 9104,
      "laughed": 9105,
      "activated": 9106,
      "bridges": 9107,
      "announce": 9108,
      "separation": 9109,
      "phenomenal": 9110,
      "graduates": 9111,
      "stressed": 9112,
      "contained": 9113,
      "integrate": 9114,
      "expanded": 9115,
      "Syria": 9116,
      "sectors": 9117,
      "attracted": 9118,
      "Berkeley": 9119,
      "Trans": 9120,
      "Keep": 9121,
      "argued": 9122,
      "Ladies": 9123,
      "knock": 9124,
      "accomplished": 9125,
      "recycled": 9126,
      "overwhelming": 9127,
      "melting": 9128,
      "sketch": 9129,
      "Virginia": 9130,
      "spatial": 9131,
      "Abraham": 9132,
      "gorgeous": 9133,
      "fluctu": 9134,
      "electromagnet": 9135,
      "trauma": 9136,
      "App": 9137,
      "Cont": 9138,
      "DM": 9139,
      "Dou": 9140,
      "Ever": 9141,
      "Emp": 9142,
      "FDA": 9143,
      "Kong": 9144,
      "PT": 9145,
      "Pas": 9146,
      "RM": 9147,
      "RNA": 9148,
      "SD": 9149,
      "TK": 9150,
      "Ted": 9151,
      "Wol": 9152,
      "awe": 9153,
      "aves": 9154,
      "dawn": 9155,
      "gli": 9156,
      "gical": 9157,
      "mask": 9158,
      "mount": 9159,
      "rican": 9160,
      "sizes": 9161,
      "rewards": 9162,
      "retail": 9163,
      "ingen": 9164,
      "orph": 9165,
      "stunt": 9166,
      "acre": 9167,
      "entit": 9168,
      "imes": 9169,
      "contem": 9170,
      "trap": 9171,
      "therlands": 9172,
      "frames": 9173,
      "proli": 9174,
      "illa": 9175,
      "spons": 9176,
      "blew": 9177,
      "evapor": 9178,
      "owners": 9179,
      "brane": 9180,
      "boots": 9181,
      "backyard": 9182,
      "kinderg": 9183,
      "holi": 9184,
      "ultural": 9185,
      "contest": 9186,
      "shower": 9187,
      "compat": 9188,
      "comparing": 9189,
      "stolen": 9190,
      "serves": 9191,
      "membrane": 9192,
      "drunk": 9193,
      "190": 9194,
      "1980": 9195,
      "visually": 9196,
      "trips": 9197,
      "cheat": 9198,
      "spacecraft": 9199,
      "graphical": 9200,
      "patents": 9201,
      "livestock": 9202,
      "answering": 9203,
      "chamber": 9204,
      "programmers": 9205,
      "Army": 9206,
      "freak": 9207,
      "vocal": 9208,
      "climbed": 9209,
      "arrhea": 9210,
      "literacy": 9211,
      "horror": 9212,
      "trading": 9213,
      "harbor": 9214,
      "violin": 9215,
      "describing": 9216,
      "terrific": 9217,
      "damaged": 9218,
      "exceptions": 9219,
      "Rock": 9220,
      "slower": 9221,
      "Steven": 9222,
      "collaborate": 9223,
      "rolls": 9224,
      "naive": 9225,
      "cision": 9226,
      "swing": 9227,
      "mutation": 9228,
      "Jews": 9229,
      "Iranian": 9230,
      "boundary": 9231,
      "analyzed": 9232,
      "switched": 9233,
      "retro": 9234,
      "Nigerian": 9235,
      "emotionally": 9236,
      "determines": 9237,
      "hostile": 9238,
      "According": 9239,
      "priorit": 9240,
      "bowl": 9241,
      "skilled": 9242,
      "Educ": 9243,
      "acquired": 9244,
      "satisfied": 9245,
      "Greenland": 9246,
      "Parkinson": 9247,
      "shifts": 9248,
      "Similar": 9249,
      "racing": 9250,
      "penguin": 9251,
      "murder": 9252,
      "thrilled": 9253,
      "absorb": 9254,
      "discussions": 9255,
      "biomass": 9256,
      "preparation": 9257,
      "theoretical": 9258,
      "distinguish": 9259,
      "Tibet": 9260,
      "County": 9261,
      "chimps": 9262,
      "flesh": 9263,
      "heavily": 9264,
      "penetr": 9265,
[...]
